the 8728160
of 4763595
and 4074043
in 3681729
a 2985766
to 2860174
was 1831934
is 1384002
The 1315891
as 1148474
for 1145132
on 1133051
by 1003104
with 990400
that 780912
at 769288
from 721901
his 655029
an 631020
In 565374
he 547686
were 471249
"@@ 460852
which 420157
are 396790
He 396419
it 380639
(@@ 355397
had 350022
or 348789
be 348112
also 343476
has 321742
first 300829
It 279471
its 274863
their 271826
who 251595
but 249017
one 245594
, 241110
not 239052
. 232433
her 230212
" 226563
have 224772
been 215076
this 211963
two 205297
-@@ 192734
after 187414
's 178596
they 174428
into 169890
other 165982
s, 158558
she 156824
) 155505
A 151127
s. 148038
all 146174
when 145646
es 145417
would 144222
more 143597
On 137957
S@@ 137430
during 136549
over 135684
where 135511
New 133868
e, 133132
This 132934
ing 132800
only 131004
between 128805
o 127653
new 127565
er 127195
s 127079
", 126755
re@@ 126437
T@@ 125734
i 124295
made 124007
in@@ 123275
up 122960
K@@ 121593
P@@ 120519
D@@ 120384
most 119691
out 117752
used 117060
became 116771
B@@ 115716
time 115674
k@@ 115281
about 114257
y@@ 114206
"The 114125
such 113829
United 113705
". 113139
known 112260
un@@ 112196
G@@ 112026
then 111765
part 110234
under 109233
than 109191
M@@ 108826
can 108745
three 108219
es, 107952
s@@ 107826
L@@ 106536
She 105337
A@@ 104958
ers 103823
F@@ 102910
some 102530
being 102437
E@@ 102049
H@@ 101930
W@@ 101604
e. 101261
), 101140
American 99239
including 99198
al@@ 99115
er@@ 98761
ed 98624
against 98331
him 98263
en@@ 97953
R@@ 97800
later 97489
through 96905
After 96538
a, 96244
many 96209
e@@ 95752
years 95234
C@@ 95086
e 94930
while 93015
N@@ 93013
until 92721
y 92667
an@@ 91802
second 91124
before 90827
t@@ 90045
there 90033
ar@@ 89541
es. 89203
well 89147
both 87872
). 87561
; 87246
played 87022
p@@ 86603
m@@ 86359
University 86003
d@@ 85352
er, 84817
g@@ 84734
i@@ 84605
film 83354
el@@ 82780
age 82533
released 82070
z@@ 81894
no 81327
1 81061
n@@ 80518
– 80408
h@@ 80210
y, 79976
b@@ 79823
f@@ 79773
de 79581
National 79309
ch@@ 78922
'@@ 78902
O@@ 78607
l@@ 78527
won 78408
As 78300
ing, 78100
V@@ 78028
en 77818
team 77763
number 77560
o@@ 77420
World 77270
at@@ 77131
called 76960
on@@ 76889
I 75858
several 75775
al 75176
early 74318
t 74014
work 73886
a. 73658
ed, 73340
us 73165
2 71911
family 71470
His 71453
u@@ 71226
j@@ 71153
: 71121
c@@ 70979
ation 70937
same 70599
it@@ 70425
began 70350
ed. 69985
J@@ 69856
May 69683
They 69099
January 68499
I@@ 68444
name 68411
v@@ 67983
these 67899
found 67784
or@@ 67328
September 67320
four 67146
w@@ 66486
June 66466
will 66434
since 66264
am@@ 66260
March 66185
end 66163
located 65975
October 65918
use 65603
ad@@ 65453
July 65428
At 65333
them 65186
st@@ 64720
season 64420
August 64116
took 64067
South 63970
former 63963
album 63912
is@@ 63726
John 63713
following 63613
a@@ 63607
." 63158
held 63142
may 63009
es@@ 62932
April 62867
3 62744
named 62441
November 62402
r@@ 62374
ag@@ 62225
man 62123
er. 62100
ing. 62011
year 61985
series 61669
served 61605
December 61359
3@@ 61302
school 60989
ate 60891
British 60798
people 60708
le@@ 60504
as@@ 60418
any 60307
born 60260
so 60066
based 59942
member 59631
son 59481
area 59449
led 59359
y. 58638
Z@@ 58509
th@@ 58505
state 58123
u 57738
received 57683
did 57650
There 57556
ic@@ 57504
Y@@ 57490
4@@ 57212
4 56983
ar 56607
each 56582
et@@ 56539
could 56480
ab@@ 56380
around 56189
back 56043
e" 55981
ac@@ 55784
However, 55526
"S@@ 55290
population 55144
/@@ 55055
U@@ 55006
city 54505
along 54504
de@@ 54493
During 54432
February 54410
States 54294
place 54186
dis@@ 54127
game 54068
built 53973
able 53905
k 53894
group 53772
local 53496
now 53266
5@@ 52966
due 52624
on, 52610
an, 52006
because 51714
- 51659
within 51597
North 51411
ti@@ 51317
6@@ 51050
im@@ 50782
published 50753
set 50741
own 50504
5 50385
ated 50177
o, 49942
music 49596
like 49520
home 49386
em@@ 49172
School 48781
left 48729
Al@@ 48705
di@@ 48578
ers, 48433
2@@ 48139
ri@@ 47978
high 47937
t, 47890
land 47879
included 47814
For 47715
very 47705
(born 47617
York 47460
ro@@ 47306
moved 47304
State 47297
public 47090
6 47053
song 46994
("@@ 46927
large 46793
Ch@@ 46791
m 46615
sh@@ 46602
small 46591
government 46479
last 46378
Sh@@ 46268
those 46229
8@@ 46064
still 46005
died 45959
town 45856
main 45811
& 45743
ul@@ 45445
five 45418
om@@ 45404
li@@ 45314
ur@@ 45265
op@@ 45192
line 45177
il@@ 45144
al, 45103
national 45092
off 45053
ers. 44984
e-@@ 44714
third 44666
7@@ 44530
ol@@ 44529
St@@ 44264
us@@ 44197
company 44066
ap@@ 44036
single 44011
village 44007
major 43940
a" 43915
ed@@ 43883
10 43723
if 43530
9@@ 43475
Mar@@ 43358
League 43285
near 43274
War 43245
ts 43235
ak@@ 43233
t. 43157
"M@@ 43019
os@@ 42996
French 42947
7 42879
s" 42796
often 42771
station 42744
said 42696
final 42694
include 42488
late 42477
e's 42453
U.S. 42427
band 42320
species 42184
8 42108
side 41921
original 41904
members 41703
another 41686
$@@ 41677
id@@ 41660
"B@@ 41411
ation. 41411
way 41319
went 41147
ing@@ 41130
ation, 40975
When 40912
Ar@@ 40853
came 40781
building 40602
ot@@ 40549
just 40459
on. 40282
German 40259
started 40205
ine 40157
ly 40130
different 40120
n 39836
per 39829
form 39743
established 39617
West 39508
ent 39339
ec@@ 39272
City 39207
el 39162
worked 39073
much 39021
le 38889
club 38881
se@@ 38686
what 38654
among 38605
joined 38378
show 38166
play 38137
ent@@ 38041
best 37948
become 37847
having 37737
announced 37663
using 37627
field 37604
be@@ 37430
9 37346
a's 37295
even 37219
make 37114
down 37029
English 37020
long 36984
et 36927
returned 36813
produced 36772
18 36676
20 36478
qu@@ 36338
million 36316
described 36239
next 36085
do 36077
various 35863
ir@@ 35802
given 35729
18@@ 35719
system 35571
ted 35549
football 35486
order 35408
married 35334
ic 35201
These 35182
' 35095
role 34954
book 34893
top 34891
created 34886
In@@ 34738
written 34694
house 34665
six 34615
end@@ 34598
.@@ 34576
ra@@ 34434
ton 34331
am 34326
day 34215
ations 34173
head 34141
ia 34071
few 34003
support 33982
political 33861
From 33860
um@@ 33833
ha@@ 33800
"T@@ 33750
os 33631
less 33579
an. 33524
Re@@ 33512
record 33486
International 33460
continued 33438
According 33309
take 33282
European 33160
p 33128
X@@ 33104
By 33092
One 33068
over@@ 32977
um 32842
title 32836
ans 32805
ut@@ 32703
en, 32695
ter@@ 32682
Car@@ 32628
12 32603
again 32600
ant 32537
ating 32512
d 32466
od@@ 32408
g 32362
service 32306
"C@@ 32269
career 32257
without 32147
co@@ 32136
founded 32122
ting 32117
") 32113
"D@@ 32077
al. 32011
ley 31924
district 31895
bi@@ 31876
15 31846
total 31832
An@@ 31804
appeared 31796
tion, 31739
recorded 31729
William 31669
ist 31586
er's 31529
ang@@ 31451
par@@ 31400
signed 31398
k, 31302
ov@@ 31214
considered 31180
Le@@ 31169
old 31154
water 31116
o. 31101
"H@@ 31059
win 31044
Bar@@ 31011
general 30976
men 30927
"P@@ 30902
’s 30874
wrote 30858
appointed 30817
Con@@ 30742
ou@@ 30739
death 30655
time, 30573
military 30540
ig@@ 30518
pl@@ 30508
tion 30492
ings 30492
St. 30482
making 30467
z 30466
opened 30452
East 30422
General 30342
international 30249
tion. 30165
professional 30165
north 30090
als 30086
San 30043
position 30016
version 29977
County 29948
1, 29862
power 29822
With 29797
sp@@ 29781
lost 29781
og@@ 29755
elected 29722
out@@ 29703
life 29597
television 29588
College 29516
formed 29496
l 29494
16@@ 29465
debut 29456
30 29444
non-@@ 29392
While 29313
con@@ 29292
President 29268
man@@ 29225
every 29221
s' 29150
production 29073
House 28990
working 28938
av@@ 28921
important 28854
ell@@ 28816
oc@@ 28790
–@@ 28785
works 28759
developed 28701
south 28663
y" 28627
x@@ 28559
and@@ 28542
ons 28531
games 28506
further 28498
25 28404
ev@@ 28276
US 28276
h 28247
County, 28215
James 28125
Royal 28116
ex@@ 28024
High 27972
sub@@ 27942
1@@ 27904
George 27898
tions 27872
ill@@ 27868
although 27868
run 27846
Par@@ 27797
y's 27795
similar 27794
Australian 27769
development 27727
playing 27714
per@@ 27681
10@@ 27673
Mc@@ 27670
ob@@ 27658
River 27639
11 27578
pro@@ 27501
ne@@ 27432
inter@@ 27405
world 27379
ates 27339
hi@@ 27264
C 27235
up@@ 27170
ay@@ 27103
all@@ 27036
player 26986
community 26930
fl@@ 26871
popular 26809
point 26804
site 26787
ous 26768
Indian 26764
16 26659
ph@@ 26647
Th@@ 26641
war 26622
"L@@ 26614
living 26572
lead 26558
gave 26474
never 26460
100 26446
Cup 26356
average 26342
finished 26171
ant@@ 26100
however, 26027
District 26022
ach@@ 26009
ter 25996
b 25994
across 25979
si@@ 25894
ari@@ 25894
ep@@ 25839
mon@@ 25838
in, 25734
15@@ 25726
art 25677
ard 25651
it. 25597
performed 25572
or, 25567
2010 25534
sold 25524
Army 25520
ian 25519
cl@@ 25466
history 25423
14 25395
church 25361
period 25355
"R@@ 25335
years. 25230
short 25223
Di@@ 25147
law 25137
Although 25100
London 25056
live 25003
ni@@ 24941
season. 24914
17@@ 24912
for@@ 24909
largest 24909
est@@ 24897
B 24829
season, 24813
father 24780
es" 24744
taken 24744
leading 24706
designed 24704
2, 24702
s) 24565
currently 24561
children 24549
Some 24549
students 24543
17 24542
directed 24540
right 24532
remained 24531
common 24514
T 24504
“@@ 24485
ors 24469
ship 24409
match 24404
though 24404
social 24383
12@@ 24378
days 24376
200@@ 24374
() 24334
featured 24283
control 24189
how 24144
Am@@ 24110
eb@@ 24035
followed 24029
originally 24025
King 23999
le, 23950
Mon@@ 23927
ad 23916
El@@ 23913
13 23903
ana 23877
level 23869
century 23846
13@@ 23836
me@@ 23823
bl@@ 23773
Be@@ 23751
once 23743
De@@ 23732
S 23731
research 23717
Har@@ 23700
air 23676
video 23672
Central 23650
west 23632
aw@@ 23629
Air 23601
he@@ 23550
Division 23522
modern 23477
should 23473
story 23461
David 23431
s: 23426
party 23425
x 23385
ow@@ 23281
seen 23242
vi@@ 23239
Her 23230
Since 23223
Its 23210
eventually 23208
14@@ 23194
and, 23173
2011 23163
current 23156
All 23155
year, 23140
est 23128
throughout 23126
Man@@ 23089
east 23088
half 23065
tr@@ 23012
Council 23004
2006 22988
pre@@ 22917
Ne@@ 22890
sent 22852
ver@@ 22842
Party 22820
3, 22793
Robert 22735
gu@@ 22698
no@@ 22690
young 22686
ay 22685
reported 22677
E 22626
go 22616
Gu@@ 22609
eg@@ 22608
we 22596
Western 22554
via 22541
ance 22524
awarded 22523
together 22521
includes 22501
Church 22499
ud@@ 22491
ch 22457
away 22449
i, 22444
official 22438
y-@@ 22398
central 22366
21 22365
Q@@ 22339
Canadian 22308
"G@@ 22300
free 22288
ally 22278
An 22259
king 22257
"F@@ 22238
gi@@ 22215
completed 22189
round 22154
time. 22149
5, 22148
business 22110
ey 22106
does 22075
great 22049
II 22038
TV 22037
19 22009
country 21998
," 21984
0@@ 21967
get 21963
sc@@ 21962
ended 21941
ten 21904
himself 21874
en. 21848
e", 21786
release 21777
replaced 21760
director 21739
times 21734
D 21712
ard@@ 21698
term 21675
6, 21671
ina 21632
full 21626
ah@@ 21621
event 21602
ati@@ 21599
features 21581
return 21557
league 21517
scored 21510
ever 21504
list 21480
Park 21476
"N@@ 21468
Li@@ 21459
a-@@ 21443
24 21428
R 21414
program 21374
ah 21365
2012 21358
Sch@@ 21324
available 21307
involved 21298
min@@ 21283
ber@@ 21278
seven 21263
previous 21229
2008 21210
design 21190
Ex@@ 21177
ity 21173
open 21172
as, 21160
usually 21157
close 21156
ke 21153
placed 21145
First 21144
reached 21133
al-@@ 21131
Per@@ 21126
ical 21102
ens@@ 21086
air@@ 21077
human 21061
mar@@ 21061
re-@@ 21045
either 21040
is, 21036
Charles 21023
ai@@ 20964
special 20928
help 20922
race 20912
se 20909
L 20897
ary 20873
upon 20871
result 20854
body 20846
Thomas 20843
c 20839
Japanese 20791
20@@ 20786
case 20779
saw 20750
En@@ 20746
ran 20742
Sp@@ 20738
provided 20729
tic@@ 20720
us, 20707
attended 20695
gen@@ 20684
Union 20641
Russian 20641
e) 20619
decided 20592
years, 20532
our 20524
fi@@ 20498
study 20466
k. 20462
private 20455
car@@ 20442
ies 20373
owned 20369
az@@ 20351
England 20350
A. 20349
Pro@@ 20313
M 20292
year. 20275
For@@ 20255
region 20241
tic 20201
Mor@@ 20182
ment 20178
construction 20176
whose 20156
track 20119
bar@@ 20103
th, 20101
Cor@@ 20071
radio 20054
4, 20037
ai 20028
women 20026
good 20015
winning 20003
office 19996
Association 19988
7, 19971
must 19970
eight 19960
added 19933
[@@ 19915
wife 19910
Street 19855
Bi@@ 19845
ite 19839
Chinese 19804
rather 19755
2014 19751
fourth 19748
language 19747
co-@@ 19746
active 19744
er" 19723
least 19712
22 19695
ass@@ 19693
brought 19689
Department 19678
uc@@ 19657
listed 19651
ie 19651
put 19646
2009 19645
ran@@ 19645
mo@@ 19638
Award 19636
teams 19635
s; 19613
approximately 19612
au@@ 19603
areas 19603
almost 19574
23 19523
election 19523
50 19466
ub@@ 19448
coach 19447
project 19440
2010, 19423
road 19416
ra 19381
Court 19348
ice 19338
ins 19336
formula_@@ 19331
2013 19324
range 19310
light 19306
F 19282
f 19279
points 19264
ok@@ 19262
Paul 19258
Italian 19231
su@@ 19227
Qu@@ 19222
s", 19215
ell 19200
ali@@ 19191
Roman 19181
it, 19173
class 19170
2007 19163
war@@ 19158
Following 19143
president 19140
—@@ 19133
"K@@ 19123
addition 19108
songs 19072
northern 19061
degree 19050
"the 19023
introduced 19023
bo@@ 19006
ry 18991
taking 18974
son, 18966
daughter 18947
provide 18926
2.@@ 18899
Minister 18884
character 18869
episode 18868
Great 18862
stated 18861
sk@@ 18849
To 18848
ence 18832
met 18824
Other 18810
forces 18804
8, 18790
southern 18786
present 18738
ast@@ 18719
Se@@ 18707
Min@@ 18678
P 18677
in. 18657
African 18635
training 18633
enc@@ 18627
Mal@@ 18602
"A@@ 18597
States. 18563
defeated 18549
2011, 18521
tim@@ 18518
ve 18508
28 18471
9, 18469
represented 18462
ne 18459
res@@ 18431
or. 18407
months 18404
her@@ 18379
spent 18367
ents 18362
s". 18360
2015 18356
el, 18344
white 18343
2012, 18308
Institute 18301
land@@ 18277
Bur@@ 18271
(the 18255
att@@ 18216
stage 18200
Michael 18176
see 18134
ash@@ 18124
soon 18124
te@@ 18114
2016 18108
Football 18091
tri@@ 18078
ent, 18063
to@@ 18061
services 18045
26 18043
e". 18028
eng@@ 18025
related 17986
allowed 17973
o-@@ 17967
tor@@ 17964
Bl@@ 17963
r 17954
2014, 17952
successful 17945
style 17936
Co@@ 17905
rock 17903
St 17892
2015, 17880
a", 17878
2013, 17877
Henry 17861
les 17814
ew@@ 17808
Col@@ 17797
changed 17779
front 17774
Spanish 17752
th 17742
ci@@ 17737
parts 17733
players 17722
start 17708
Me@@ 17707
ru@@ 17702
behind 17697
type 17683
Grand 17670
we@@ 17653
yl@@ 17652
whom 17647
previously 17630
you 17628
le. 17625
especially 17625
Christian 17605
size 17580
studio 17579
Ber@@ 17571
little 17560
Soviet 17548
ya 17510
ann@@ 17486
significant 17485
performance 17485
ism 17466
killed 17453
1. 17417
car 17407
ish@@ 17386
events 17385
2009, 17370
Com@@ 17364
Ma@@ 17350
Los 17331
ang 17310
black 17308
outside 17296
ks 17293
information 17286
rest 17257
under@@ 17248
regular 17248
female 17239
Mac@@ 17218
Best 17188
27 17173
towards 17168
ology 17155
plays 17138
Most 17134
tive 17099
"E@@ 17097
board 17088
Academy 17082
te 17077
college 17070
education 17054
ten@@ 17036
uk@@ 17035
ess@@ 17033
low 17032
ator 17008
ther@@ 17007
ong 16992
ve@@ 16973
la 16964
Ac@@ 16964
generally 16951
police 16925
2016, 16913
2008, 16889
Sal@@ 16887
Her@@ 16873
entered 16870
po@@ 16868
Tr@@ 16865
an's 16860
gh@@ 16801
traditional 16801
,@@ 16796
according 16791
re 16782
studied 16769
anc@@ 16757
Catholic 16747
2017, 16740
ich@@ 16710
launched 16709
pi@@ 16709
UK 16703
Many 16680
ale 16677
beginning 16662
uses 16655
ist@@ 16636
pe@@ 16633
hit 16627
40 16623
o's 16619
goal 16618
above 16603
201@@ 16594
Bo@@ 16582
O 16574
bu@@ 16552
sometimes 16548
0.@@ 16547
d, 16545
lo@@ 16544
ford 16509
lived 16506
und@@ 16498
contract 16497
thus 16493
ations, 16478
rights 16460
western 16455
Ros@@ 16439
Hall 16439
29 16431
mid-@@ 16420
Ad@@ 16418
writing 16406
fire 16394
change 16383
come 16378
Music 16375
ations. 16375
Or@@ 16372
independent 16370
ty 16366
shows 16334
income 16332
Center 16329
Championship 16322
ain@@ 16310
Kar@@ 16295
o" 16280
(200@@ 16267
later, 16261
process 16254
runs 16241
ek@@ 16240
opening 16224
numerous 16209
on-@@ 16200
met@@ 16195
es: 16191
ity. 16189
ans@@ 16179
Su@@ 16163
Ri@@ 16157
primary 16144
199@@ 16127
Two 16117
operated 16109
red 16104
id 16060
ity, 16030
Richard 16012
instead 16010
ish 16004
ot 15990
force 15983
India 15978
d. 15974
ability 15971
strong 15961
Mer@@ 15959
rec@@ 15952
railway 15916
ren@@ 15916
2. 15902
rel@@ 15885
Tri@@ 15882
section 15881
contains 15876
Lake 15876
becoming 15868
gl@@ 15867
ore 15845
ani@@ 15828
serving 15817
attack 15815
mis@@ 15809
sch@@ 15805
mer@@ 15790
highest 15790
ind@@ 15790
brother 15784
Ab@@ 15781
running 15773
sal@@ 15766
No. 15756
groups 15753
1.@@ 15751
ar, 15751
Peter 15736
2007, 15674
"), 15635
already 15625
ge@@ 15605
lower 15599
states 15597
capital 15586
3.@@ 15580
2018, 15577
associated 15574
Cl@@ 15537
mother 15531
can@@ 15528
him. 15525
sl@@ 15517
action 15512
Pal@@ 15503
mat@@ 15484
] 15483
mostly 15479
forced 15478
Australia 15475
court 15463
particularly 15444
2017 15444
man, 15440
my 15424
0. 15420
Ver@@ 15415
ground 15404
aircraft 15403
Bel@@ 15399
"W@@ 15393
interest 15391
fin@@ 15390
far 15390
natural 15362
(S@@ 15351
ak 15340
th. 15335
find 15332
century, 15321
0 15317
Pl@@ 15317
lies 15315
caused 15314
Act 15310
competed 15307
entire 15298
ka 15297
1st 15294
summer 15289
ur 15289
str@@ 15288
Company 15278
Sir 15277
going 15268
seat 15264
... 15252
G 15250
ler 15238
on's 15223
commercial 15215
er-@@ 15211
Mo@@ 15206
ear@@ 15202
Ro@@ 15201
famous 15184
wood 15174
initially 15173
possible 15165
Society 15161
higher 15156
noted 15129
Northern 15122
supported 15121
(C@@ 15112
too 15112
economic 15098
sw@@ 15090
gr@@ 15089
v 15069
means 15056
Red 15050
annual 14999
claimed 14979
S. 14958
N 14950
la@@ 14950
ative 14948
2005 14939
center 14927
personal 14923
senior 14921
Ag@@ 14918
arm@@ 14911
selected 14905
stone 14904
aj@@ 14895
ens 14882
tion@@ 14877
War@@ 14867
France 14856
V 14853
others 14835
ly@@ 14832
dec@@ 14825
Group 14815
Wal@@ 14814
river 14782
2000 14779
retired 14765
(A@@ 14749
ham 14745
required 14744
additional 14738
ge 14714
2004 14713
185@@ 14710
ma 14708
helped 14679
subsequently 14678
referred 14675
closed 14661
Nor@@ 14654
give 14649
oo@@ 14649
album, 14627
wide 14609
ade 14604
Their 14603
lin@@ 14595
base 14589
units 14574
genus 14501
age, 14499
ts, 14495
earned 14495
create 14491
Cha@@ 14482
ir 14480
Br@@ 14471
ent. 14463
increased 14460
ong@@ 14451
Road 14450
2018 14426
J. 14419
California 14413
et, 14383
campaign 14377
success 14372
model 14354
"). 14344
move 14338
ey@@ 14331
cre@@ 14313
ine@@ 14307
believed 14291
har@@ 14290
key 14284
com@@ 14270
majority 14258
leader 14250
Washington 14248
limited 14245
ric@@ 14238
me 14237
musical 14231
us. 14227
enti@@ 14221
Greek 14220
Second 14215
He@@ 14209
example, 14209
got 14204
schools 14198
Un@@ 14198
2006, 14195
65 14194
Canada 14182
eastern 14175
Summer 14165
ings. 14159
raised 14156
religious 14150
space 14135
ts. 14129
Irish 14121
Southern 14113
Despite 14111
as. 14106
Film 14106
U 14100
Government 14099
shot 14097
appearance 14095
ff@@ 14086
0, 14082
America 14075
int@@ 14063
ech@@ 14056
thought 14050
Battle 14043
cover 14041
rate 14040
data 14038
collection 14035
ence, 14035
ering 14029
Club 14028
ys@@ 14018
183@@ 14016
ets 14008
division 14000
a) 13996
ser@@ 13981
C. 13977
passed 13975
remains 13962
Gar@@ 13958
act 13958
media 13956
eri@@ 13950
ings, 13942
Pol@@ 13925
af@@ 13916
our@@ 13908
ships 13905
person 13887
Bal@@ 13875
2nd 13857
als, 13855
ker 13853
31 13852
route 13844
m, 13842
Jewish 13840
century. 13838
ath@@ 13837
ans, 13836
better 13804
ery 13797
real 13794
acquired 13793
market 13783
leaving 13779
competition 13768
ori@@ 13739
era 13734
novel 13728
Sc@@ 13726
ves 13724
cor@@ 13717
ic, 13712
course 13711
health 13703
composed 13703
word 13702
Sam@@ 13696
5. 13696
3. 13691
feature 13672
ise 13667
ling 13650
amp@@ 13649
rac@@ 13625
presented 13618
carried 13617
graduated 13613
q@@ 13604
Pi@@ 13587
earlier 13561
ine, 13549
organization 13547
island 13544
starting 13543
Black 13536
gold 13528
legal 13520
bas@@ 13515
army 13514
fe@@ 13511
Republic 13505
mainly 13500
tions. 13498
county 13490
Sk@@ 13488
fer@@ 13486
Can@@ 13448
ill 13438
ending 13424
ik@@ 13422
federal 13416
medical 13412
back@@ 13411
an-@@ 13408
certain 13392
larger 13380
buildings 13374
access 13370
families 13363
standard 13355
loss 13354
complete 13347
regional 13338
tions, 13332
tur@@ 13325
turned 13322
individual 13301
19@@ 13289
native 13287
Art 13284
work@@ 13281
yn@@ 13274
shown 13269
future 13266
app@@ 13245
plant 13244
trans@@ 13230
off@@ 13228
appears 13228
cast 13202
financial 13185
offered 13182
6–@@ 13177
nine 13170
books 13153
184@@ 13138
La 13135
takes 13119
180@@ 13119
n, 13118
day, 13114
"I 13103
pp@@ 13102
sea 13070
films 13059
increase 13057
que 13048
Cal@@ 13043
nearly 13034
municipality 13024
e; 13011
structure 13002
der 12995
es' 12961
2019, 12946
Kh@@ 12943
Mat@@ 12939
Eastern 12934
ea@@ 12927
tour 12927
Force 12925
promoted 12912
fall 12910
Museum 12901
That 12901
ation@@ 12895
the@@ 12895
Pe@@ 12891
self-@@ 12884
el. 12875
variety 12874
allow 12865
specific 12856
proposed 12852
location 12842
despite 12841
failed 12833
recording 12830
always 12830
White 12824
Pacific 12819
separate 12814
recent 12808
But 12790
changes 12788
consists 12777
studies 12770
property 12762
median 12755
finally 12755
(N@@ 12754
bridge 12754
ug@@ 12749
ili@@ 12737
longer 12731
night 12721
Island 12720
head@@ 12718
New@@ 12712
ally, 12706
Committee 12705
#@@ 12703
do@@ 12702
£@@ 12702
Democratic 12689
(M@@ 12688
forms 12685
cur@@ 12672
civil 12659
chief 12652
remaining 12650
Gr@@ 12640
Cas@@ 12637
China 12633
If 12632
score 12631
aged 12629
ow 12625
"a 12623
area. 12621
Sha@@ 12618
Joseph 12607
lines 12602
Dis@@ 12600
ure 12593
19th 12589
is. 12581
them. 12581
inc@@ 12577
managed 12570
(199@@ 12568
age. 12549
4. 12548
evidence 12531
ern@@ 12527
ry@@ 12526
ner 12526
post 12516
itself 12516
anti-@@ 12503
terms 12502
two-@@ 12495
198@@ 12492
Dr. 12485
atic 12485
Board 12485
historical 12482
example 12479
8. 12475
Si@@ 12472
Chief 12467
ate, 12461
ered 12461
Old 12461
let 12447
Arts 12445
edition 12432
ants 12428
wanted 12427
7. 12425
ack@@ 12424
need 12419
aff@@ 12409
provides 12401
ton, 12386
told 12374
ful 12363
5% 12354
ani 12348
ton@@ 12340
primarily 12330
Navy 12327
manager 12305
6. 12295
Both 12292
9. 12291
2-@@ 12284
serve 12278
ino 12278
artist 12274
Another 12268
fact 12266
Ge@@ 12261
might 12258
oy@@ 12253
transferred 12253
als. 12244
ing" 12242
trade 12235
officially 12232
Dar@@ 12228
ara 12227
Gra@@ 12219
victory 12213
prior 12211
money 12204
woman 12199
discovered 12196
week 12195
t's 12195
Vi@@ 12193
Ser@@ 12191
practice 12187
asked 12184
cr@@ 12183
turn 12180
countries 12176
dr@@ 12175
um, 12154
student 12149
iz@@ 12148
covered 12146
Val@@ 12142
18, 12136
multiple 12134
Europe 12122
women's 12109
foreign 12108
tournament 12097
relationship 12091
Fl@@ 12089
Mary 12082
ax@@ 12080
4.@@ 12075
K 12071
ter, 12060
arrived 12058
At@@ 12053
park 12049
attempt 12048
deal 12047
ely 12046
responsible 12043
issue 12031
e: 12030
network 12029
square 12028
Mad@@ 12022
extended 12022
ics 12016
directly 12007
2003 12004
Ed@@ 11998
ends 11993
adi@@ 11990
super@@ 11970
author 11967
5.@@ 11964
ments 11953
ch, 11948
room 11944
ick@@ 11937
Wil@@ 11937
broadcast 11934
operations 11932
meeting 11928
issued 11926
plan 11924
ee 11919
cost 11915
administrative 11910
cultural 11907
179@@ 11906
La@@ 11905
in-@@ 11901
ble 11898
Ham@@ 11891
ta 11890
a". 11881
els 11846
movement 11839
sports 11827
Pri@@ 11824
We@@ 11809
at, 11806
unit 11805
Edward 11782
Public 11781
oll@@ 11779
Germany 11778
Mil@@ 11774
below 11772
Ph@@ 11769
food 11762
ties 11761
un 11759
dem@@ 11759
Lord 11755
ages 11751
4-@@ 11750
ers@@ 11739
2005, 11739
Sa@@ 11734
Ram@@ 11733
1,@@ 11731
Char@@ 11730
ol 11727
Bay 11726
view 11724
ano 11721
20th 11720
t-@@ 11711
coming 11709
District, 11698
companies 11698
ord@@ 11697
au 11695
loc@@ 11694
meaning 11687
2010. 11687
anti@@ 11684
fifth 11681
X 11677
Ben@@ 11674
Inter@@ 11673
star 11670
writer 11666
produce 11663
km 11660
oni@@ 11657
enough 11655
alongside 11646
report 11619
ram@@ 11616
— 11615
ters 11608
Dutch 11607
2002 11596
ists 11595
"O@@ 11594
M. 11594
love 11587
3-@@ 11584
makes 11578
renamed 11572
Fre@@ 11566
direct 11559
date 11556
ure@@ 11556
ber 11555
Kingdom 11547
Tor@@ 11542
inn@@ 11538
ret@@ 11537
whether 11536
na 11525
constructed 11521
Japan 11511
por@@ 11510
del@@ 11508
ordered 11506
heavy 11502
oh@@ 11500
Er@@ 11499
fac@@ 11493
magazine 11490
source 11481
2001 11472
om 11468
particular 11456
prominent 11454
decision 11453
bor@@ 11445
son@@ 11440
one-@@ 11437
face 11436
science 11434
ei@@ 11430
done 11428
ue 11423
60 11420
highly 11419
Saint 11415
subject 11407
go@@ 11404
bur@@ 11402
ancient 11395
CA@@ 11392
Louis 11389
Texas 11389
male 11383
award 11375
:@@ 11374
ash 11370
Smith 11367
grew 11359
are@@ 11356
ov 11356
” 11356
notable 11355
participated 11355
1–@@ 11348
lack 11346
ris@@ 11342
energy 11336
ness 11335
giving 11328
ville 11321
ines 11297
likely 11297
Big 11295
s), 11294
Mi@@ 11290
engine 11280
ide@@ 11279
3rd 11278
intended 11278
Sar@@ 11275
comes 11274
ess 11269
3% 11265
nearby 11262
commonly 11260
ically 11259
let@@ 11249
i. 11240
appear 11237
past 11235
us" 11232
2–@@ 11231
command 11230
Pan@@ 11230
team. 11221
latter 11219
Shi@@ 11218
fully 11209
States, 11206
2019 11197
Mas@@ 11195
US@@ 11195
mi@@ 11188
Is@@ 11179
ard, 11177
staff 11175
ron@@ 11172
st 11167
probably 11167
troops 11164
200 11158
ain 11145
influence 11143
ment@@ 11141
"" 11141
length 11137
dri@@ 11122
1% 11110
featuring 11110
Scottish 11102
Bre@@ 11101
titled 11092
ond@@ 11091
Gal@@ 11090
u, 11079
du@@ 11068
2% 11066
den@@ 11064
(P@@ 11059
45 11056
5-@@ 11045
of@@ 11043
5–@@ 11042
gained 11036
Mag@@ 11033
ef@@ 11032
join 11031
2,@@ 11030
complex 11024
stri@@ 11021
kn@@ 11009
centre 11002
s). 11002
yard 10998
10, 10983
purchased 10982
form@@ 10978
historic 10971
stat@@ 10970
University, 10969
mor@@ 10962
187@@ 10956
ous@@ 10956
Bas@@ 10954
continue 10951
br@@ 10947
ance, 10938
ance. 10938
three-@@ 10935
moving 10934
ven@@ 10932
men's 10931
professor 10930
ia, 10925
Mark 10923
month 10921
houses 10918
24, 10903
ke@@ 10894
ly, 10886
goals 10877
Ter@@ 10875
Ke@@ 10875
systems 10870
matches 10868
wi@@ 10866
Lu@@ 10864
Martin 10863
ats 10862
1-@@ 10848
fight 10845
15, 10824
hand@@ 10824
tor 10819
management 10805
material 10805
4% 10803
Zealand 10802
reach 10801
artists 10799
child 10793
ane 10788
es) 10784
Research 10782
names 10778
train 10771
ve, 10760
rem@@ 10759
2012. 10756
individuals 10753
ers' 10745
2011. 10741
ory 10733
pre-@@ 10733
193@@ 10727
battle 10722
Civil 10714
pol@@ 10714
sur@@ 10712
(, 10712
dedicated 10706
); 10706
acting 10706
serves 10705
stor@@ 10702
197@@ 10700
da 10700
Republican 10700
College, 10698
men@@ 10697
news 10696
Mel@@ 10695
cont@@ 10692
divided 10686
ack 10676
ze 10665
Fi@@ 10657
officer 10656
Prince 10655
Parliament 10654
Hor@@ 10653
il 10639
assigned 10638
bre@@ 10638
idea 10636
conducted 10636
am, 10632
medal 10630
ung@@ 10621
Ger@@ 10618
singer 10602
movie 10599
Gi@@ 10597
de, 10593
host 10593
os, 10588
revealed 10580
largely 10580
lat@@ 10574
oil 10570
fellow 10570
middle 10570
plans 10563
E. 10562
rat@@ 10559
8% 10558
ste@@ 10557
ational 10555
ere 10547
4–@@ 10546
berg 10543
characters 10536
30@@ 10536
z, 10533
6.@@ 10533
issues 10525
results 10524
(or 10509
(a 10505
y) 10503
cause 10499
hor@@ 10499
quickly 10487
Latin 10482
weeks 10479
ning 10475
ate. 10471
Green 10468
2009. 10468
! 10462
ank@@ 10455
6% 10447
ans. 10446
(201@@ 10441
initial 10434
Te@@ 10432
cut 10427
P. 10425
2013. 10424
ox@@ 10422
tw@@ 10415
Valley 10413
Hu@@ 10405
H 10401
agreed 10397
rural 10396
Ti@@ 10392
ological 10389
read@@ 10388
organized 10375
planned 10372
husband 10371
overall 10367
Hill 10367
Far@@ 10365
tra@@ 10364
operating 10362
hold 10359
2014. 10358
12, 10356
m. 10353
hosted 10350
W. 10350
Later 10349
University. 10348
t" 10340
25@@ 10337
Star@@ 10306
leave 10305
estimated 10294
themselves 10289
emb@@ 10287
widely 10287
7–@@ 10286
ay, 10281
smaller 10280
Assembly 10271
Fort 10270
Governor 10268
industry 10263
test 10257
older 10256
500 10253
Polish 10249
3–@@ 10247
Dev@@ 10240
Du@@ 10239
them, 10231
FC 10224
4th 10220
20, 10214
2008. 10209
suffered 10206
iti@@ 10193
call 10183
2015. 10177
sec@@ 10175
"A 10171
Angeles 10162
build 10158
nominated 10157
RA@@ 10153
Historic 10153
star@@ 10151
yet 10149
championship 10143
typically 10141
n. 10134
ver 10134
IS@@ 10134
effect 10132
Radio 10131
ment, 10128
00@@ 10122
West@@ 10119
Tim@@ 10113
Ak@@ 10108
so@@ 10104
Congress 10101
Chicago 10098
Director 10094
land, 10094
ors, 10093
whole 10091
Wh@@ 10086
Secretary 10082
val@@ 10082
se, 10076
R. 10074
appearances 10069
miles 10066
Festival 10063
2000, 10057
"V@@ 10054
des 10052
adopted 10048
declared 10040
7.@@ 10040
50@@ 10029
imp@@ 10022
sound 10021
equ@@ 10017
wh@@ 10016
6-@@ 10015
B. 10014
down@@ 10014
amount 10010
reg@@ 10010
9% 10007
hard 10006
that, 10002
w 9990
surface 9989
Service 9988
basketball 9982
ranked 9977
minor 9973
stop 9971
sil@@ 9971
university 9968
O'@@ 9965
ement 9964
ez@@ 9961
D. 9961
ence. 9957
bro@@ 9954
mile 9953
2004, 9947
status 9947
Route 9946
parents 9943
Lee 9941
Paris 9937
ps 9932
don@@ 9931
Black@@ 9931
hours 9930
Tur@@ 9921
Go@@ 9920
resulted 9920
sister 9917
policy 9915
7% 9913
operation 9910
line, 9909
City, 9905
defeat 9903
ators 9896
ors. 9895
es; 9893
lands 9892
density 9890
positive 9887
wing 9883
ality 9881
Gre@@ 9881
,000 9879
Queen 9877
Commission 9873
Cre@@ 9873
department 9869
ant, 9868
ving 9865
Ly@@ 9864
et. 9864
ft 9863
hy@@ 9856
Law 9846
actually 9839
11, 9838
asi@@ 9838
Str@@ 9836
arch@@ 9833
s." 9828
speed 9826
Whit@@ 9824
del 9819
Major 9818
Professor 9818
Dun@@ 9817
ett@@ 9816
Fin@@ 9807
taught 9807
gener@@ 9806
port 9806
ock 9803
olog@@ 9795
Middle 9790
Del@@ 9789
hand 9787
Mu@@ 9777
2016. 9770
s-@@ 9770
Railway 9766
compared 9753
Before 9752
der@@ 9743
immediately 9733
scoring 9730
ar. 9725
rep@@ 9724
enn@@ 9723
friend 9721
1999 9720
ars 9719
Under 9717
ion@@ 9716
Born 9711
ball 9705
executive 9701
Day 9698
Science 9698
keep 9694
paid 9689
en's 9689
27@@ 9689
40@@ 9688
post@@ 9680
1) 9674
parish 9671
sm@@ 9666
(in 9665
producer 9664
stations 9663
Hal@@ 9661
2007. 9661
response 9660
Olympic 9658
5th 9654
quality 9651
14, 9650
16, 9640
gar@@ 9638
Of 9637
leg@@ 9637
ae 9635
pan@@ 9633
minutes 9631
physical 9625
(198@@ 9621
bus 9618
fell 9613
border 9611
zed 9606
Po@@ 9603
felt 9601
sha@@ 9594
him, 9593
Africa 9593
focus 9580
def@@ 9574
2) 9574
assistant 9569
world. 9568
ick 9557
combined 9556
mal@@ 9556
mission 9547
ost@@ 9539
tracks 9536
SA@@ 9527
not@@ 9525
Prime 9521
1998 9519
candidate 9513
ac 9513
ary, 9510
fied 9509
ure, 9508
losing 9508
May@@ 9505
BBC 9495
ment. 9494
theory 9490
housing 9482
Gl@@ 9477
old@@ 9473
hom@@ 9472
saying 9469
ao 9466
Pet@@ 9463
ds 9455
experience 9455
tors 9450
Kal@@ 9444
vis@@ 9443
day. 9438
Sun@@ 9438
17, 9437
col@@ 9436
resulting 9435
8.@@ 9431
alized 9431
Ru@@ 9429
e." 9428
Im@@ 9422
ast 9418
x, 9413
pass 9413
es", 9412
elements 9409
upper 9406
channel 9406
(I@@ 9405
Ha@@ 9403
bank 9395
es". 9391
Ni@@ 9387
chi@@ 9386
letter 9385
captured 9384
solo 9380
speci@@ 9375
situated 9375
cap@@ 9371
y", 9367
(D@@ 9366
connected 9361
ese 9361
L. 9361
ola 9360
um. 9354
cent@@ 9353
programs 9352
potential 9351
critical 9349
sing@@ 9349
lives 9348
Chi@@ 9340
Rom@@ 9338
ici@@ 9331
Each 9327
ine. 9325
inside 9324
Sw@@ 9324
Dor@@ 9316
"J@@ 9311
succeeded 9310
row 9304
2017. 9300
newly 9294
drama 9292
care 9292
‘@@ 9287
identified 9285
ked 9281
poor 9280
0–@@ 9270
cities 9266
stars 9266
des@@ 9260
inspired 9259
accepted 9255
buried 9255
ed" 9248
residents 9245
)@@ 9245
Bill 9243
char@@ 9242
review 9241
wor@@ 9240
| 9240
13, 9240
growing 9238
Alexander 9234
ring 9232
School, 9231
Wood@@ 9231
/ 9231
Ash@@ 9228
mentioned 9215
Three 9210
ath 9207
von 9207
marked 9200
ini@@ 9199
hum@@ 9199
21, 9198
alist 9197
AC@@ 9195
run@@ 9191
recognized 9189
meet 9187
196@@ 9184
one, 9182
ks, 9180
activities 9178
spread 9170
och@@ 9169
Education 9169
contemporary 9166
cases 9164
charge 9161
Championships 9155
Sim@@ 9153
security 9152
kept 9150
surrounding 9140
Cur@@ 9136
AS@@ 9135
continues 9133
log@@ 9133
1996 9132
Mount 9131
Conference 9127
ini 9126
Federal 9120
aired 9118
H. 9117
ata 9104
film, 9097
ban@@ 9085
inf@@ 9083
series, 9078
35 9071
aid 9070
on" 9069
starring 9066
weight 9065
designated 9064
showed 9063
rit@@ 9061
people, 9061
178@@ 9057
removed 9050
ica 9046
ell, 9042
mer 9042
., 9042
offers 9041
tried 9038
den 9034
gra@@ 9034
remain 9033
nation@@ 9032
Because 9027
Tal@@ 9024
"; 9021
ship@@ 9019
digital 9018
Young 9012
percent 9012
25, 9009
providing 9000
addition, 8996
van 8996
II, 8995
gam@@ 8993
Mur@@ 8992
Don@@ 8987
formation 8985
London, 8984
growth 8982
numbers 8979
Cam@@ 8977
stand@@ 8977
zation 8976
Frank 8976
Rec@@ 8975
ball@@ 8975
st, 8970
avi@@ 8970
W 8970
obtained 8962
zz@@ 8961
8–@@ 8961
bra@@ 8960
Swedish 8948
expanded 8943
ile 8940
system. 8939
tu@@ 8939
suggested 8935
England. 8932
30, 8922
granted 8920
needed 8918
branch 8914
til@@ 8910
med@@ 8910
however 8909
Records 8901
Sur@@ 8899
my@@ 8885
vote 8881
existing 8872
ney 8871
value 8870
shi@@ 8866
confirmed 8863
pay 8863
crew 8859
agreement 8858
hu@@ 8858
0s 8857
mixed 8856
press 8844
greater 8835
records 8827
Supreme 8824
28@@ 8823
oldest 8816
ses 8814
ow, 8811
simply 8809
recently 8801
al" 8801
presence 8795
194@@ 8793
secondary 8789
attention 8788
AR@@ 8783
occurred 8782
tiv@@ 8776
pri@@ 8773
defined 8771
ns 8771
ena 8770
Bu@@ 8770
allows 8768
ways 8767
row@@ 8766
ated. 8765
Hong 8763
Ireland 8761
expected 8760
Bor@@ 8759
2003, 8756
ide 8753
ham@@ 8752
Virginia 8752
oz@@ 8749
ty@@ 8749
concept 8748
Reg@@ 8741
nature 8741
Bank 8733
land. 8731
Coast 8731
sen@@ 8730
efforts 8729
academic 8728
res 8726
1997 8720
League. 8720
19, 8718
an" 8717
newspaper 8715
11@@ 8714
ys 8713
Women's 8710
se. 8710
editor 8708
Sub@@ 8706
bul@@ 8704
ase 8703
high-@@ 8700
Jack 8699
Among 8699
ette 8691
at. 8690
double 8689
allowing 8688
capacity 8687
(now 8679
cat@@ 8676
province 8676
city. 8673
ms 8673
pres@@ 8672
play@@ 8663
winner 8663
Des@@ 8663
soldiers 8662
ial 8661
2018. 8658
distance 8657
4) 8657
9.@@ 8656
any@@ 8656
Cap@@ 8654
coast 8651
22, 8648
develop 8647
ene 8644
Gam@@ 8643
receive 8638
marriage 8636
becomes 8630
France. 8629
gives 8629
urban 8626
occupied 8625
piece 8622
ter. 8622
reduced 8618
function 8615
life. 8599
Like 8593
ised 8588
council 8585
Asian 8583
Bishop 8582
28, 8579
tells 8579
seasons 8578
Tom 8577
Santa 8572
NA@@ 8568
oper@@ 8567
settled 8565
article 8563
household 8561
effects 8560
Duke 8554
Bon@@ 8553
bet@@ 8551
sion 8550
bought 8548
forward 8547
Little 8539
Hel@@ 8537
man. 8533
settlement 8531
top@@ 8530
Stat@@ 8529
9–@@ 8527
isi@@ 8522
Australia. 8509
faced 8506
-based 8505
Em@@ 8501
returning 8500
ward 8497
commissioned 8496
relatively 8493
Order 8493
2006. 8488
ire 8484
work, 8476
Dec@@ 8475
youth 8468
owner 8465
ant. 8463
difficult 8459
offer 8449
e), 8449
kin@@ 8447
destroyed 8447
people. 8441
visited 8440
unique 8437
23, 8437
War. 8428
problems 8427
177@@ 8427
union 8426
80 8424
Theatre 8423
words 8423
Super 8423
act@@ 8420
India. 8418
family. 8418
culture 8418
computer 8418
comm@@ 8417
sign 8414
technology 8410
footballer 8409
opposed 8407
Year 8401
III 8394
Green@@ 8391
Ministry 8386
silver 8385
Team 8385
ry, 8384
Senate 8383
d'@@ 8381
ster@@ 8381
Mexico 8380
younger 8379
Line 8371
Sol@@ 8366
scientific 8365
share 8365
26, 8361
3,@@ 8359
ail@@ 8359
War, 8356
Pat@@ 8343
goes 8341
clear 8340
hel@@ 8337
1992 8333
eh@@ 8331
online 8330
ington 8329
gre@@ 8325
therefore 8324
ley, 8323
fought 8322
ve. 8317
.) 8312
employed 8311
(197@@ 8293
(which 8292
Several 8288
Bra@@ 8288
gun 8284
Atlantic 8283
idae. 8283
flight 8283
(and 8278
basis 8277
Gen@@ 8276
Met@@ 8276
metal 8273
claim 8272
8-@@ 8270
Mah@@ 8270
ski 8270
ung 8267
households 8265
this, 8264
sts 8263
Between 8249
holds 8247
tax 8243
che@@ 8241
broke 8236
CO@@ 8234
cannot 8231
Hol@@ 8231
ut 8229
Brown 8228
creating 8225
applied 8222
Florida 8212
product 8207
portion 8203
6th 8198
27, 8191
y". 8188
add@@ 8188
eth@@ 8186
levels 8179
unable 8179
subsequent 8178
Register 8177
completely 8175
attempted 8174
friends 8171
mountain 8163
ha 8162
fil@@ 8155
Town 8155
Joe 8153
Ju@@ 8153
plan@@ 8148
bring 8146
Francisco 8145
game, 8144
area, 8142
except 8141
za 8140
ach 8139
1995 8132
split 8123
C, 8122
California, 8119
tical 8116
Maria 8114
Rock@@ 8113
re, 8111
ad, 8107
e). 8105
emp@@ 8105
ia. 8104
firm 8101
I, 8099
ip@@ 8098
ella 8089
Sel@@ 8087
claims 8086
stories 8084
approach 8084
products 8079
Ol@@ 8079
ush@@ 8072
de. 8063
ying 8062
achieved 8060
ock@@ 8059
officers 8053
chosen 8050
29, 8047
census, 8046
account 8044
work. 8042
aut@@ 8037
scene 8035
Jan@@ 8035
1994 8034
Over 8033
Premier 8032
types 8030
industrial 8029
Office 8024
ents, 8024
pal@@ 8022
amb@@ 8019
ties, 8015
comedy 8015
ays 8014
leaves 8013
yards 8013
F. 8003
ala 8002
aries 8001
paper 8001
founder 8001
Games 7997
pressure 7996
street 7996
worth 7991
formerly 7983
game. 7982
treatment 7980
ce 7978
entitled 7978
job 7977
2002, 7977
kh@@ 7974
Due 7972
Van 7970
Mus@@ 7968
ons, 7968
igh@@ 7961
green 7961
ita 7960
sixth 7958
ure. 7956
2), 7953
Health 7953
Air@@ 7950
San@@ 7949
team, 7948
No 7946
(; 7942
cas@@ 7941
others. 7939
(also 7937
creation 7936
os. 7935
ism, 7935
figure 7931
Captain 7927
(B@@ 7925
election, 7923
Wales 7917
rank 7916
Province, 7914
Wat@@ 7914
C) 7908
founding 7908
mass 7903
frequently 7901
Korean 7900
consisted 7898
3) 7898
true 7896
sky 7896
Luc@@ 7896
oli@@ 7894
couple 7891
24@@ 7891
Scott 7890
ual 7887
approved 7887
sol@@ 7885
Ap@@ 7885
tal@@ 7885
Ku@@ 7883
edi@@ 7883
bri@@ 7882
bit@@ 7882
travel 7873
Pennsylvania 7870
pur@@ 7863
Justice 7861
well. 7861
70 7858
Ki@@ 7857
conference 7854
politician 7853
Boston 7852
Lo@@ 7849
ch. 7848
armed 7842
alone 7841
sn@@ 7839
ts@@ 7836
Bow@@ 7831
Pas@@ 7831
something 7829
Pr@@ 7827
acc@@ 7826
0-@@ 7824
All@@ 7824
Jam@@ 7821
7th 7817
four-@@ 7815
oph@@ 7812
actor 7809
Lev@@ 7804
chairman 7803
Johnson 7802
gas 7799
places 7795
shortly 7787
Sil@@ 7785
di 7783
sexual 7779
Highway 7777
Os@@ 7776
method 7775
esh@@ 7772
containing 7767
proved 7763
inv@@ 7762
cal@@ 7761
CD 7759
win@@ 7759
And@@ 7757
cour@@ 7757
meant 7757
estate 7756
Elizabeth 7755
son's 7752
ned 7751
big 7750
way, 7750
advanced 7750
You 7749
electric 7745
refused 7743
ated, 7740
mag@@ 7739
7-@@ 7737
label 7727
ff 7727
BC@@ 7726
father, 7721
lim@@ 7721
Jones 7718
Lat@@ 7715
visit 7714
As@@ 7713
ust@@ 7713
rise 7712
contributed 7712
Also 7707
ink@@ 7707
And 7704
Jo@@ 7701
mil@@ 7700
extensive 7695
ute 7694
Development 7691
Top 7691
Mr. 7689
distribution 7689
sel@@ 7688
fication 7688
ose 7688
performing 7685
Stor@@ 7683
fish 7683
’@@ 7683
cell 7683
I. 7682
hospital 7677
influenced 7675
begins 7672
yp@@ 7668
ology, 7667
Vol@@ 7660
children. 7657
onto 7655
way. 7655
war, 7653
heart 7652
Super@@ 7652
prevent 7651
32 7650
CE@@ 7648
leaders 7646
acy 7646
receiving 7645
Mill@@ 7645
rule 7644
field, 7639
teaching 7638
association 7638
Mir@@ 7636
dance 7628
conditions 7625
1991 7620
table 7617
2001, 7614
Empire 7611
country. 7609
ged 7608
rap@@ 7605
fighting 7605
principal 7604
ign@@ 7603
focused 7600
ures 7599
attacked 7599
fur@@ 7598
derived 7594
voice 7592
cul@@ 7591
A, 7591
mm 7590
ble@@ 7587
Mari@@ 7587
activity 7586
ama 7584
finish 7584
shared 7581
look 7579
purpose 7577
pen@@ 7576
Centre 7576
headquarters 7572
representing 7571
co 7568
Creek 7567
Az@@ 7561
ref@@ 7560
line. 7560
fic@@ 7559
Arthur 7554
"Ch@@ 7550
186@@ 7549
France, 7544
converted 7543
ais@@ 7542
Fer@@ 7541
effective 7541
ay. 7539
ship, 7539
jo@@ 7537
Series 7534
1), 7534
vers@@ 7534
Mike 7531
census 7526
Blue 7521
art@@ 7520
190@@ 7518
Red@@ 7517
here 7511
ster 7505
son. 7497
concert 7497
one. 7492
dropped 7491
Pen@@ 7488
Gor@@ 7487
Corps 7487
tics 7486
Chris 7481
th-@@ 7479
A) 7478
On@@ 7477
Emperor 7474
ultimately 7474
holding 7472
II@@ 7472
school, 7471
ki 7465
California. 7464
', 7464
va 7462
So@@ 7454
1993 7454
election. 7453
perform 7452
ist, 7451
covers 7451
break 7448
leadership 7443
Boy@@ 7443
fu@@ 7442
minute 7440
floor 7439
ic. 7435
ted. 7431
Williams 7431
increasing 7424
committee 7424
micro@@ 7420
ger 7420
singles 7417
post-@@ 7416
Indi@@ 7414
i" 7413
Port 7413
bit 7412
stra@@ 7410
ro 7409
Nov@@ 7408
26@@ 7406
person@@ 7405
T. 7404
(R@@ 7403
Tar@@ 7401
museum 7399
Pre@@ 7394
ort@@ 7380
text 7380
ib@@ 7380
Mos@@ 7378
contained 7377
Wi@@ 7377
Germany. 7376
series. 7376
acts 7375
l, 7375
alism 7375
sign@@ 7374
My@@ 7372
all-@@ 7370
nam@@ 7364
spring 7364
know 7361
Columbia 7358
cars 7357
3), 7354
invited 7352
1990 7350
bel@@ 7349
Upon 7349
29@@ 7349
hon@@ 7349
Olympics 7348
Land@@ 7348
workers 7345
list@@ 7345
2005. 7344
'. 7339
bed 7337
Sand@@ 7335
history. 7334
pop 7330
controlled 7329
El 7329
Med@@ 7329
300 7327
opposition 7320
elections 7317
Hy@@ 7316
finishing 7313
York, 7312
water@@ 7311
Ra@@ 7306
refers 7305
reference 7300
standing 7293
boat 7292
sought 7287
versions 7285
net 7282
powerful 7279
positions 7279
system, 7278
Station 7277
producing 7276
tax@@ 7265
90 7262
hal@@ 7258
ined 7257
read 7251
Christ@@ 7250
Britain 7250
Steve 7248
"I@@ 7246
5), 7245
attempts 7244
Social 7242
Awards 7241
educated 7239
ably 7239
box 7237
umb@@ 7231
ism. 7230
ly. 7230
master 7226
guest 7225
supporting 7223
(L@@ 7222
beat 7222
id, 7222
dark 7221
represent 7217
hol@@ 7216
traffic 7212
Sab@@ 7212
pun@@ 7211
ek 7208
theme 7207
roles 7204
aver@@ 7202
in's 7202
ari 7196
kind 7193
minister 7192
ding 7186
Canada. 7183
older. 7183
death. 7182
software 7181
ches 7179
en" 7177
Bri@@ 7177
royal 7177
eli@@ 7175
Raj@@ 7173
permanent 7169
ency 7167
ities 7165
ents. 7165
it's 7163
195@@ 7160
City. 7158
enter 7157
ted, 7155
arrested 7153
says 7152
direction 7151
today 7150
ky 7150
someone 7142
passing 7140
projects 7139
fre@@ 7139
ada 7137
onic 7137
istic 7136
...@@ 7135
ap 7128
consecutive 7128
tit@@ 7122
1988 7119
tre@@ 7117
Sydney 7112
sing 7110
England, 7108
band's 7107
headed 7106
Mexican 7105
successfully 7103
2019. 7102
starred 7098
tro@@ 7095
viol@@ 7093
i-@@ 7089
reaching 7089
Medical 7087
Italy 7084
4), 7082
developing 7081
break@@ 7080
Mul@@ 7077
Native 7075
transfer 7072
sales 7072
Tra@@ 7071
Norwegian 7070
CS@@ 7067
rad@@ 7064
Pres@@ 7059
AM@@ 7056
incorporated 7053
No@@ 7052
ł@@ 7044
Tom@@ 7044
ake 7043
le-@@ 7040
wife, 7037
8) 7037
slightly 7035
out. 7034
store 7032
effort 7032
society 7029
joining 7029
trains 7026
192@@ 7025
rich 7021
5) 7021
twice 7019
net@@ 7019
8), 7019
vol@@ 7015
ades 7013
clubs 7011
heavily 7010
name. 7007
ics, 7002
there. 7001
rail@@ 7001
I-@@ 6996
Police 6996
pair 6995
Dal@@ 6994
det@@ 6992
day@@ 6989
Bro@@ 6989
champion 6986
well-@@ 6986
determined 6985
forming 6984
basic 6983
wall 6981
Hay@@ 6981
De 6981
ously 6980
vari@@ 6978
joint 6977
qualified 6975
wood@@ 6974
path@@ 6972
k's 6968
necessary 6966
Jim 6962
laid 6961
About 6959
bal@@ 6959
oon 6957
quite 6955
global 6954
London. 6953
literary 6952
family, 6949
Washington, 6948
Francis 6947
ones 6946
trained 6946
episodes 6945
Daniel 6944
class@@ 6942
le's 6940
II. 6939
birth 6938
eu@@ 6937
Por@@ 6937
lot 6936
7) 6934
Prior 6934
painting 6931
death, 6930
draw 6930
impact 6929
interview 6929
plat@@ 6926
uck@@ 6926
try 6926
sem@@ 6925
9th 6923
ss@@ 6922
8th 6920
Bob 6919
promotion 6919
establish 6917
Ba@@ 6916
mel@@ 6916
le" 6914
ko 6914
squ@@ 6912
Gold@@ 6911
thi@@ 6910
begin 6907
tis@@ 6907
administration 6906
hired 6905
Sea 6904
maximum 6903
Special 6901
expressed 6900
write 6895
rail 6895
image 6892
60@@ 6891
territory 6890
Though 6889
God@@ 6885
Avenue 6881
alternative 6880
her. 6880
lin 6879
highway 6878
ja 6871
6) 6870
possibly 6866
generation 6866
ple@@ 6865
Rock 6865
18th 6865
ons. 6864
6), 6863
campus 6861
Military 6861
oo 6857
S-@@ 6856
A-@@ 6854
Pur@@ 6854
damage 6854
7), 6847
voted 6844
risk 6842
G. 6842
Andrew 6838
ship. 6836
classical 6832
Michigan 6830
code 6828
reports 6825
bar 6825
domestic 6824
(196@@ 6822
entry 6821
400 6821
documentary 6819
stay 6819
ich 6813
nuclear 6811
cop@@ 6806
place. 6806
trial 6801
Han@@ 6800
rules 6795
normal 6794
titles 6794
Nations 6790
merged 6788
rating 6787
him@@ 6785
tly 6785
9) 6783
red@@ 6783
regarded 6782
mod@@ 6782
selling 6781
(F@@ 6776
00 6774
out, 6772
sides 6771
beyond 6770
feet 6769
poly@@ 6769
(T@@ 6767
ect@@ 6767
1989 6766
Bay@@ 6765
ites 6764
ros@@ 6763
Carolina 6760
problem 6759
Bat@@ 6757
Ren@@ 6754
knowledge 6751
Golden 6751
ate@@ 6750
racing 6746
attacks 6745
conf@@ 6745
shire 6744
America. 6741
Rad@@ 6741
period, 6737
want 6734
by@@ 6733
exp@@ 6731
blood 6730
bronze 6725
&@@ 6724
maintained 6723
burg 6723
wind@@ 6722
scheduled 6720
exchange 6718
%) 6717
Open 6716
Sports 6714
toward 6712
est, 6708
Fe@@ 6707
law@@ 6707
mas@@ 6706
educational 6705
bound 6705
sets 6704
y; 6704
ture 6697
ame 6694
Australia, 6693
grand@@ 6693
vel@@ 6692
Junior 6692
Op@@ 6690
analysis 6690
band@@ 6688
My 6688
School. 6687
graduate 6686
deep 6681
daily 6679
Community 6677
35@@ 6674
causing 6671
roc@@ 6670
Gil@@ 6668
facilities 6667
k" 6666
Ang@@ 6662
multi-@@ 6661
Tre@@ 6661
Bab@@ 6659
ville, 6659
1999, 6658
Lam@@ 6655
say 6654
protect 6654
technical 6654
operate 6652
Ta@@ 6652
u. 6651
them@@ 6650
%. 6648
life, 6646
avoid 6645
produc@@ 6645
transport 6643
Cape 6643
all, 6639
ero 6633
2004. 6631
performances 6631
York. 6628
h, 6628
teacher 6628
Muslim 6627
dist@@ 6626
ony 6626
Cent@@ 6625
Ul@@ 6623
doing 6622
ruled 6621
Tro@@ 6621
officials 6617
ently 6616
Tam@@ 6615
awards 6615
ri 6613
lab@@ 6611
year@@ 6610
drug 6609
Foundation 6606
arms 6605
Av@@ 6605
les@@ 6604
ded, 6603
pos@@ 6600
ism@@ 6599
simple 6595
Pope 6594
Men@@ 6591
heard 6588
drive 6586
tional 6584
188@@ 6579
carry 6579
Victoria 6578
We 6577
She@@ 6576
Israel 6570
baseball 6563
passes 6561
Ry@@ 6558
Lady 6557
argued 6556
Hom@@ 6556
sion@@ 6554
launch 6554
AP@@ 6551
Long 6549
promote 6549
figures 6548
Turkish 6546
rid@@ 6545
cross 6545
supply 6544
refer 6541
!" 6541
regarding 6541
tree 6540
setting 6538
funding 6537
platform 6534
hour 6534
Mun@@ 6531
36 6531
pat@@ 6528
credited 6528
Uni@@ 6527
ed: 6522
resigned 6522
festival 6522
CD@@ 6520
Gro@@ 6519
ement, 6515
ma@@ 6514
Ir@@ 6512
1984 6510
consisting 6508
ished 6507
NCAA 6507
content 6505
% 6505
ful@@ 6503
expansion 6503
school. 6500
search 6498
serious 6496
189@@ 6491
captain 6491
High@@ 6490
(E@@ 6489
occurs 6487
(as 6487
Arm@@ 6486
sources 6485
Kam@@ 6485
region. 6481
models 6479
way@@ 6477
trying 6477
op 6477
9-@@ 6473
closely 6470
Play@@ 6470
engaged 6467
parties 6466
finds 6466
ies. 6464
Tw@@ 6462
Sy@@ 6462
chose 6457
sid@@ 6457
relations 6452
camp 6451
gun@@ 6450
internal 6447
praised 6446
p. 6444
Fair@@ 6443
sa@@ 6440
C-@@ 6439
half-@@ 6439
33 6438
describes 6433
establishment 6430
website 6429
Hot 6428
Tu@@ 6426
Comp@@ 6422
ail 6419
ies, 6419
greatest 6419
More 6417
registered 6417
writ@@ 6415
volume 6413
commander 6405
format 6405
Man 6404
Only 6398
theatre 6397
ous, 6396
billion 6396
’ 6395
governor 6395
albums 6393
Cour@@ 6392
iting 6392
plants 6388
communities 6387
ild@@ 6380
edge 6377
prison 6371
believe 6367
premiered 6367
Cat@@ 6367
Mid@@ 6365
"Billboard" 6361
tower 6361
a), 6358
mental 6355
ura 6354
sites 6353
sum@@ 6353
Rural 6352
Mont@@ 6351
vo@@ 6349
j 6347
Nar@@ 6347
bat@@ 6346
75 6345
semi-@@ 6341
sense 6339
sion, 6338
Memorial 6336
Germany, 6336
stand 6336
borough 6334
non@@ 6333
government. 6331
ard. 6330
fy 6330
Sri 6329
mp@@ 6326
King@@ 6324
lake 6322
Times" 6322
ks. 6320
stock 6320
Cro@@ 6320
briefly 6319
arg@@ 6319
hear@@ 6318
later. 6317
sun@@ 6313
really 6313
career, 6313
Liberal 6310
earliest 6309
ump@@ 6307
equipment 6307
contact 6306
Stephen 6305
color 6304
acted 6304
Swiss 6300
hard@@ 6298
Ban@@ 6293
ited 6293
dra@@ 6291
Ohio 6291
9), 6291
ens, 6290
bs 6290
side. 6290
marine 6289
ace 6288
Holy 6288
31, 6287
mark 6286
Park, 6284
specifically 6283
racial 6283
temple 6282
authority 6281
wal@@ 6276
Shar@@ 6273
presidential 6273
entirely 6272
ths 6270
flow 6270
foot@@ 6265
ologist 6263
American, 6262
debuted 6259
ny 6256
getting 6254
ca@@ 6250
fields 6250
ford, 6250
loan 6250
uni@@ 6248
brand 6248
Den@@ 6246
1980 6244
AT@@ 6243
think 6241
facility 6241
Four 6240
Olympics. 6237
mus@@ 6236
sor@@ 6231
kill 6230
B-@@ 6229
ae@@ 6229
reason 6226
1987 6225
FM 6224
respectively. 6224
games. 6223
Ker@@ 6218
Foreign 6218
core 6217
representative 6216
Israeli 6216
regul@@ 6214
River. 6213
Ur@@ 6211
Jose 6210
176@@ 6210
od 6206
block 6205
and. 6200
ji 6200
scale 6198
Tour 6198
Cross 6197
Labour 6194
sport 6192
1986 6191
tropical 6191
districts 6190
0% 6190
name, 6189
town. 6188
games, 6181
agu@@ 6181
Jun@@ 6176
A.@@ 6175
Wor@@ 6174
All-@@ 6172
Gran@@ 6171
ther 6171
Tel@@ 6169
forest 6168
CP@@ 6165
connection 6165
Ste@@ 6165
blue 6164
collected 6164
replace 6161
house, 6160
oun@@ 6158
Russia 6157
passenger 6157
Il@@ 6155
improve 6152
town@@ 6149
publication 6148
Gold 6144
io 6143
Cr@@ 6143
80@@ 6141
mid@@ 6141
follows 6139
actions 6139
Portuguese 6137
Jr. 6137
pack@@ 6135
ight 6135
x. 6134
Street, 6133
Islamic 6128
votes 6125
ary. 6123
sy@@ 6121
ym@@ 6118
dates 6118
ric 6118
Kat@@ 6117
chemical 6116
st. 6111
foot 6111
du 6110
ental 6110
Americ@@ 6110
airport 6109
fans 6107
Harry 6101
adjacent 6093
1998, 6093
Stra@@ 6088
looking 6086
stein 6083
calling 6082
syn@@ 6077
articles 6069
ular 6067
zi@@ 6063
authorities 6062
side, 6061
Spain 6061
Book 6057
Library 6056
distributed 6055
rugby 6052
your 6052
People's 6049
Tony 6049
man's 6048
ics. 6048
(with 6048
34 6045
ask@@ 6044
abandoned 6043
p, 6042
4,@@ 6040
population. 6039
pic@@ 6039
Member 6027
chart 6027
junior 6025
Canada, 6024
Once 6022
Pic@@ 6021
tically 6020
environmental 6020
farm@@ 6019
Ann@@ 6019
result, 6019
direc@@ 6015
Dur@@ 6015
Hospital 6011
America, 6008
en-@@ 6005
formal 6004
winter 6004
al's 6003
ded. 6002
cer@@ 6000
2003. 6000
together, 6000
ki@@ 5997
Scotland 5996
partner 5994
farm 5993
atory 5993
defense 5992
tradition 5992
hockey 5991
charged 5990
NFL 5988
classes 5988
ters. 5987
grade 5986
Earl 5985
music, 5983
gain 5981
Je@@ 5976
calls 5973
affected 5969
Ga@@ 5968
seems 5963
metres 5961
dar@@ 5961
ou 5960
Europe, 5959
Dem@@ 5959
Tran@@ 5957
ins, 5957
70@@ 5956
reduce 5955
ters, 5954
sen 5954
laws 5954
counter@@ 5954
ids 5953
concluded 5952
South@@ 5952
squad 5949
low-@@ 5944
1985 5944
notably 5944
ored 5943
Naval 5942
copies 5941
painted 5941
rol@@ 5940
el's 5939
plane 5936
k-@@ 5935
Mountain 5928
sa 5922
protein 5922
Country 5919
compete 5918
guitar 5918
Business 5917
cra@@ 5916
formally 5915
application 5914
things 5914
period. 5913
J 5913
Star 5912
sion. 5912
letters 5911
arts 5908
contain 5906
combat 5906
ton. 5904
drawn 5903
Home 5903
soci@@ 5902
Georgia 5901
ø@@ 5899
Media 5895
clos@@ 5894
library 5894
book, 5893
straight 5892
Hun@@ 5891
display 5890
Arab 5889
operates 5887
regularly 5886
wid@@ 5886
er", 5885
1972 5885
accused 5884
commun@@ 5879
Operation 5879
Albert 5877
ft@@ 5870
climate 5869
radi@@ 5869
Hockey 5868
signing 5868
0s, 5866
accompanied 5865
""@@ 5864
pr@@ 5864
regions 5862
Nag@@ 5860
Kn@@ 5858
trac@@ 5857
PS@@ 5854
Sen@@ 5850
sex 5849
Early 5848
towns 5848
38 5848
conc@@ 5847
pe 5846
state. 5843
municipal 5841
els, 5841
ingly 5840
mak@@ 5839
children, 5838
retirement 5835
females 5834
Communist 5834
Master 5833
Ca@@ 5833
East@@ 5832
Cy@@ 5831
fri@@ 5829
ben@@ 5829
dead 5828
,000. 5825
Channel 5825
ement. 5823
career. 5823
album. 5820
Walter 5820
machine 5818
1983 5818
Lar@@ 5818
Kir@@ 5816
cells 5815
Son@@ 5809
em 5806
Cup. 5806
Brian 5806
protection 5805
defeating 5804
alis@@ 5804
Al 5802
cut@@ 5801
bands 5800
0) 5798
Americans 5796
sell 5796
architect 5792
agent 5792
conflict 5792
1996, 5791
Philadelphia 5790
elec@@ 5789
BC 5787
ahead 5785
seventh 5785
villages 5785
safety 5781
Executive 5780
anna 5780
combination 5779
K. 5777
Dam@@ 5775
sey 5774
News 5773
killing 5773
History 5772
over, 5772
Class 5771
Kong 5770
Airport 5768
typical 5767
northeast 5766
stood 5765
bon@@ 5765
factory 5763
odi@@ 5763
males. 5761
lyrics 5758
negative 5758
ook 5757
ey, 5756
comp@@ 5756
enz@@ 5756
situation 5755
a; 5754
fuel 5753
nor 5751
FA 5751
war. 5751
les, 5750
follow 5750
comic 5750
Christmas 5748
planning 5748
37 5747
Al-@@ 5747
ple 5746
Plat@@ 5745
horse 5745
1997, 5744
Lov@@ 5742
ra, 5740
single-@@ 5740
sons 5738
Bridge 5736
Bak@@ 5735
1970s 5735
improved 5735
wa@@ 5734
inner 5733
fleet 5730
methods 5730
leads 5730
dating 5728
stating 5727
(H@@ 5727
The@@ 5726
naval 5725
world, 5724
Corporation 5724
z. 5723
2002. 5721
Gener@@ 5720
rare 5719
nor@@ 5719
adult 5715
brothers 5714
2000. 5711
ened 5710
Mak@@ 5709
fiction 5708
Ass@@ 5707
Kor@@ 5706
1982 5706
ef 5703
Cul@@ 5701
Taylor 5700
ger@@ 5699
screen 5698
Fox 5696
Der@@ 5693
orders 5693
installed 5692
organis@@ 5691
pieces 5690
recognition 5690
ana, 5689
SR 5687
ron 5686
ties. 5685
rated 5683
Blu@@ 5683
speaking 5681
River, 5680
0), 5680
pas@@ 5679
ome 5675
is" 5674
existence 5674
Marine 5673
ethnic 5673
seri@@ 5673
introduction 5672
flying 5672
ments. 5671
organizations 5668
Miss 5667
actual 5662
zing 5661
lig@@ 5658
Iran. 5657
memory 5657
er) 5651
But@@ 5650
first-@@ 5648
17th 5644
stands 5642
experienced 5639
Puerto 5639
activ@@ 5638
families. 5636
occur 5635
1980s 5634
rou@@ 5633
re. 5629
film. 5627
ad. 5624
reviews 5623
agricultural 5622
electronic 5620
opportunity 5619
history, 5618
Toronto 5617
Jackson 5617
cy@@ 5616
ken 5615
God 5615
hall 5615
"", 5613
Imperial 5613
mit@@ 5610
able, 5609
ole 5609
author@@ 5608
dep@@ 5608
Danish 5606
boy 5606
peak 5606
mayor 5605
im 5605
ta@@ 5604
lit@@ 5603
but@@ 5603
Jersey 5602
all. 5600
ator@@ 5600
hundred 5598
sequ@@ 5596
North@@ 5593
notes 5593
vent@@ 5592
old, 5592
twelve 5592
learning 5586
Federation 5586
may@@ 5585
1960s 5584
carrying 5584
ls 5584
assumed 5582
easily 5582
Bir@@ 5579
filled 5579
ants, 5579
Rob@@ 5579
appearing 5577
dated 5574
Forest 5574
mann 5570
India, 5569
AF@@ 5568
observed 5568
price 5567
org@@ 5567
1979 5567
"St@@ 5563
black@@ 5563
oth@@ 5562
brief 5561
Jud@@ 5561
don 5559
biggest 5557
Day@@ 5555
equal 5554
Asia 5554
TV@@ 5552
entrance 5551
enemy 5551
Province 5550
engineering 5550
seats 5548
present, 5545
1968 5545
Europe. 5545
iv@@ 5545
vil@@ 5544
Prize 5543
company, 5542
thing 5540
second-@@ 5540
ming 5540
Jews 5535
perhaps 5535
criminal 5534
Field 5534
languages 5533
2001. 5533
up, 5533
Bern@@ 5530
mouth 5524
alization 5522
rag@@ 5522
Clar@@ 5519
city, 5518
times, 5517
sive 5516
showing 5515
um" 5514
iron 5514
1976 5512
water. 5512
lie 5512
DVD 5511
broken 5509
Czech 5507
cell@@ 5505
Ci@@ 5504
exhibition 5503
music. 5502
singing 5501
needs 5501
peace 5501
citizens 5499
audience 5499
"Y@@ 5496
Infantry 5496
Ven@@ 5495
= 5495
objec@@ 5487
level. 5486
175@@ 5486
represents 5485
morning 5484
lam@@ 5482
father's 5480
ally. 5480
actress 5478
rear 5476
northwest 5476
moth 5475
castle 5475
choice 5474
opposite 5473
Saint-@@ 5470
attached 5470
ing-@@ 5470
Poland. 5470
ner@@ 5470
hou@@ 5469
1974 5469
ed-@@ 5468
quar@@ 5468
Ay@@ 5467
Game 5467
field. 5467
stayed 5466
criticized 5465
committed 5465
Na@@ 5464
retained 5463
mine 5463
rot@@ 5462
am. 5461
materials 5461
anth@@ 5460
player. 5460
classified 5459
to-@@ 5459
Do@@ 5459
hun@@ 5456
Rid@@ 5455
(including 5454
Ev@@ 5453
said, 5452
Ful@@ 5451
liber@@ 5450
sam@@ 5450
FI@@ 5447
fle@@ 5447
scor@@ 5446
gri@@ 5445
learned 5445
importance 5444
crime 5444
ized 5443
rejected 5441
1945 5440
pul@@ 5439
hotel 5438
extremely 5436
itation 5434
height 5432
end, 5432
maintain 5431
(195@@ 5430
audi@@ 5429
MP@@ 5428
Bul@@ 5427
pilot 5426
Bell@@ 5425
China. 5424
linked 5424
able. 5424
Ric@@ 5423
ish, 5423
hands 5423
gets 5418
Lewis 5417
48 5416
illi@@ 5416
distinct 5415
oe 5413
awa 5411
up. 5410
ation" 5409
Senior 5408
Scot@@ 5408
tun@@ 5408
inger 5408
Le 5407
Ty@@ 5404
Direc@@ 5403
animal 5402
interested 5401
es." 5401
"New 5401
psych@@ 5399
Places 5399
bury 5398
cast@@ 5398
phot@@ 5394
bill 5393
1). 5393
Res@@ 5393
ately 5393
record@@ 5393
Lim@@ 5392
Human 5390
well, 5390
Hen@@ 5389
Long@@ 5386
translated 5384
Wall@@ 5383
reserve 5382
grounds 5382
Davis 5379
injury 5378
concer@@ 5375
views 5375
id. 5373
its. 5373
murder 5372
Pap@@ 5371
scenes 5369
glass 5368
temperature 5366
(G@@ 5364
(), 5363
2). 5362
admitted 5362
set@@ 5360
ess, 5360
why 5359
Regional 5356
U-@@ 5355
delivered 5355
matter 5354
esi@@ 5354
Jean 5352
Life 5351
honor 5351
1995, 5351
Ky@@ 5350
County. 5350
Winter 5349
(K@@ 5348
anch@@ 5345
programming 5345
Brazilian 5343
itt@@ 5343
target 5341
ry. 5339
judge 5337
Out@@ 5335
show@@ 5335
CB@@ 5334
collec@@ 5331
Wilson 5330
Ottoman 5330
herself 5327
mos@@ 5327
Security 5326
card 5325
fired 5323
rates 5321
save 5320
anda 5320
steel 5319
dor@@ 5318
Sm@@ 5317
Cu@@ 5317
tries 5317
mean 5315
week@@ 5313
+ 5312
advantage 5311
ST@@ 5310
+@@ 5308
corner 5308
Cra@@ 5308
dom@@ 5307
phase 5306
residential 5305
arranged 5305
funds 5304
offices 5304
)" 5304
AN@@ 5301
didn't 5301
capture 5300
advance 5299
ances 5297
Mod@@ 5296
Gri@@ 5295
16th 5295
extension 5293
involving 5293
ched 5288
36@@ 5284
,0@@ 5281
provincial 5281
rose 5281
city's 5281
school@@ 5280
ight@@ 5279
vehicle 5278
determine 5275
Dav@@ 5275
Lieutenant 5274
opera 5272
prepared 5270
ES@@ 5270
tap@@ 5270
coll@@ 5269
1981 5269
aya 5269
Ob@@ 5268
Mand@@ 5266
Austrian 5262
driving 5259
Oxford 5259
cho@@ 5257
Berlin 5255
1978 5254
found@@ 5252
motion 5251
you@@ 5251
hill 5251
ots 5250
Arch@@ 5249
Win@@ 5249
yn 5249
es), 5249
covering 5248
defensive 5245
attend 5243
roughly 5243
eni@@ 5242
caught 5240
posi@@ 5239
ins@@ 5237
Lin@@ 5236
writers 5235
42 5233
causes 5231
ude 5231
gg@@ 5230
Ford 5228
require 5227
ards 5227
purchase 5226
nie 5223
Frank@@ 5222
peaked 5222
Is 5221
sound@@ 5220
els. 5220
stadium 5219
town, 5218
Cab@@ 5217
aqu@@ 5215
ood@@ 5215
Pon@@ 5214
Corn@@ 5211
Vill@@ 5210
dy 5210
ring@@ 5209
Will@@ 5208
Commonwealth 5207
brother, 5207
visual 5206
UN@@ 5205
ion 5204
vers 5203
yr@@ 5201
duc@@ 5201
door 5200
high@@ 5199
foundation 5196
45@@ 5196
Hill@@ 5196
Bad@@ 5195
tel@@ 5194
Don 5193
tion" 5189
fine 5189
Later, 5188
owners 5188
plac@@ 5186
ot, 5185
pot@@ 5184
ments, 5182
ass 5181
sale 5181
Lor@@ 5178
Frederick 5174
Hi@@ 5173
Pa@@ 5173
own@@ 5171
ER@@ 5170
F-@@ 5169
ote 5168
partnership 5166
1973 5164
1977 5163
literature 5162
ideas 5162
1975 5160
"In@@ 5158
invasion 5157
girl 5156
flows 5156
die 5155
separated 5155
coastal 5153
Philip 5153
Stadium 5151
arm 5149
thousands 5147
Third 5146
Simon 5145
mot@@ 5145
Fri@@ 5145
Sum@@ 5144
aka 5143
southwest 5140
Rus@@ 5140
oul@@ 5139
colonial 5138
locations 5137
Samuel 5136
examples 5135
spot 5132
ling@@ 5132
erg@@ 5132
tab@@ 5131
times. 5130
condition 5128
Illinois 5128
ist. 5127
properties 5125
uch@@ 5125
mul@@ 5123
Good@@ 5123
capable 5118
mach@@ 5118
Census 5115
NE@@ 5114
starts 5114
host@@ 5112
ave 5111
replacing 5109
Deputy 5108
southeast 5108
million. 5107
es-@@ 5107
Pakistan 5107
speech 5106
1970 5105
world's 5105
Rem@@ 5102
Es@@ 5100
tru@@ 5099
Additionally, 5099
USA 5098
historian 5098
secret 5096
1994, 5096
collaboration 5093
Chairman 5093
roads 5092
dic@@ 5091
d-@@ 5090
vic@@ 5088
"". 5086
link 5085
bringing 5082
fire@@ 5082
90@@ 5081
Cast@@ 5081
adapted 5079
interior 5079
ands 5077
edited 5077
med 5077
Tak@@ 5076
aur@@ 5074
anim@@ 5073
Lak@@ 5072
protected 5071
tor, 5069
Even 5066
Free 5066
bow@@ 5065
ology. 5063
nothing 5062
functions 5062
unc@@ 5061
life@@ 5059
Maj@@ 5058
ga 5056
ania 5054
commune 5051
address 5049
Bea@@ 5049
ato 5048
mounted 5048
bodies 5048
statement 5048
part@@ 5048
ates, 5048
MS@@ 5047
include: 5047
participate 5045
arian 5043
Legislative 5043
Kur@@ 5042
ona 5041
tan@@ 5040
Sin@@ 5039
mark@@ 5038
Tru@@ 5036
Roy@@ 5036
Manchester 5035
Sher@@ 5034
Dan@@ 5034
itz@@ 5033
lic@@ 5029
independence 5026
Then 5026
Kansas 5024
structures 5024
increasingly 5024
ges 5023
deb@@ 5023
group, 5022
severe 5022
Regiment 5021
ston 5021
or's 5018
ences 5017
sub-@@ 5015
publishing 5012
tied 5010
medi@@ 5009
station. 5006
considerable 5004
suggests 5002
ess. 5001
kes 5001
children's 5000
cu@@ 5000
ets, 4999
reading 4997
ty, 4997
Flor@@ 4996
ants. 4995
jazz 4995
Television 4994
powered 4992
ille 4991
equivalent 4989
filed 4988
page 4988
survived 4988
uck 4986
Head 4985
Meanwhile, 4984
ire@@ 4983
ences. 4982
37@@ 4981
extra 4981
medieval 4979
Kan@@ 4979
influential 4978
a). 4977
anz@@ 4976
yellow 4973
contributions 4973
ke, 4973
es). 4972
Nazi 4972
Power 4971
Area 4966
3). 4964
sou@@ 4963
eman 4963
men, 4962
initi@@ 4958
ski@@ 4957
mobile 4955
step@@ 4954
rop@@ 4953
(see 4951
Nat@@ 4950
Gard@@ 4950
Harvard 4949
disease 4947
mov@@ 4944
escape 4943
aim@@ 4941
cou@@ 4940
Hon@@ 4940
sli@@ 4940
budget 4937
Est@@ 4933
lu@@ 4933
1964 4932
origin 4932
Law@@ 4930
failure 4928
Castle 4927
Technology 4925
.” 4925
1999. 4924
quarter 4923
investigation 4922
Vis@@ 4921
programme 4921
ket@@ 4920
ton's 4920
Church, 4918
camp@@ 4918
sed 4917
Rio 4917
tie 4915
ett 4915
company. 4915
P) 4915
short@@ 4913
T-@@ 4912
th-century 4911
vehicles 4909
cricket 4908
cher 4908
government, 4908
lik@@ 4906
quali@@ 4906
1969 4905
hi 4905
Colonel 4904
Through 4904
39 4904
ago 4904
lov@@ 4903
raise 4901
elling 4900
Howard 4899
spoken 4896
Metropolitan 4895
demand 4895
gate 4895
doc@@ 4895
Mayor 4894
Hum@@ 4892
Upper 4891
weekly 4891
stopped 4890
equipped 4890
bishop 4889
question 4888
alists 4887
Space 4886
Conservative 4886
ang, 4886
Kon@@ 4885
Main 4884
o", 4884
Sunday 4883
1992, 4880
Inc. 4880
ed; 4876
classic 4876
arc@@ 4875
Sun 4873
mining 4873
its, 4872
Unlike 4871
turns 4871
tive, 4868
spac@@ 4868
understanding 4868
brown 4866
Ben 4864
crossing 4862
1971 4862
residence 4862
design@@ 4862
tic, 4861
Records. 4858
alli@@ 4856
analy@@ 4856
Ali 4855
Well@@ 4855
signal 4853
Alan 4852
significantly 4852
Adam 4852
ool@@ 4852
Park. 4852
selec@@ 4851
journal 4851
lasted 4850
ain, 4849
walls 4848
12th 4847
secretary 4846
boo@@ 4844
Arab@@ 4844
plus 4843
ines, 4843
ker@@ 4842
Region 4841
Ball@@ 4839
tak@@ 4839
John@@ 4839
sul@@ 4836
It@@ 4836
41 4835
illa 4835
chance 4835
wards 4834
journ@@ 4834
kin 4834
sett@@ 4834
breaking 4833
ram 4833
ises 4832
rest@@ 4831
celebrated 4830
adding 4830
ensure 4830
38@@ 4825
1967 4824
bad 4823
Dra@@ 4823
1993, 4823
guns 4823
weather 4817
AC 4815
Heritage 4814
resources 4813
hair@@ 4812
journalist 4811
investment 4809
Wild@@ 4809
cited 4809
IT@@ 4809
shape 4808
les. 4807
Anthony 4805
dat@@ 4804
44 4803
capit@@ 4803
Africa. 4801
ear 4799
book@@ 4798
ery, 4796
to, 4796
ji@@ 4796
Coll@@ 4794
struck 4793
station, 4793
changing 4792
damaged 4792
reaction 4792
strongly 4792
folk 4791
Earth 4791
Love 4789
Up@@ 4789
1991, 4789
test@@ 4788
Network 4788
York@@ 4788
storm 4788
bottom 4787
charges 4786
indic@@ 4784
plot 4781
Gh@@ 4779
huge 4778
user 4778
5). 4778
chain 4778
g, 4778
y: 4774
helping 4773
Massachusetts 4772
Over@@ 4772
appointment 4772
econom@@ 4771
4). 4771
rooms 4771
hot@@ 4770
Ko@@ 4769
powers 4768
selection 4768
long@@ 4765
composer 4762
lock 4762
Sam 4761
However 4760
note 4760
13th 4758
heads 4757
there, 4756
Mis@@ 4756
over. 4754
Lab@@ 4753
AD@@ 4752
tis 4751
again. 4747
document@@ 4746
Bol@@ 4745
dry 4745
fast 4744
sections 4743
Anne 4743
races 4741
coal 4740
animals 4740
restored 4738
relative 4736
injured 4735
somewhat 4735
leg 4734
pop@@ 4732
drew 4731
Var@@ 4730
yer 4729
twenty 4727
nec@@ 4727
kov@@ 4727
har 4726
twenty-@@ 4724
chair 4723
ground@@ 4723
wind 4723
1,000 4721
Tol@@ 4721
state, 4720
10.@@ 4719
mut@@ 4718
building. 4718
makeup 4717
sequence 4715
music@@ 4714
CI@@ 4714
Y 4713
Antonio 4712
team's 4712
Rugby 4710
grown 4708
Fil@@ 4708
ott@@ 4708
category 4708
sponsored 4706
Poland 4706
constitu@@ 4706
ean 4700
new@@ 4700
ening 4700
hydro@@ 4699
fying 4699
League, 4698
temporary 4697
port@@ 4696
ba 4696
year-old 4695
entering 4691
verse 4688
mother, 4687
keeping 4687
termin@@ 4685
house. 4685
ood, 4685
Khan 4685
150 4684
falls 4681
1990, 4680
una 4679
47 4678
Post@@ 4676
Haw@@ 4675
akes 4675
Medal 4674
ul 4673
factor 4673
difference 4672
-up 4672
candidates 4672
fun@@ 4671
Bah@@ 4671
view@@ 4670
7). 4670
Cer@@ 4669
Melbourne 4668
(who 4668
Rome 4667
other@@ 4666
duty 4665
trees 4665
6). 4663
cam@@ 4661
pil@@ 4661
Paul@@ 4661
reli@@ 4661
ishing 4659
artistic 4659
nation 4659
girls 4658
with@@ 4658
Ka@@ 4658
exist 4657
patients 4655
modified 4652
RO@@ 4652
"Sh@@ 4652
pet@@ 4651
ows 4651
step 4651
frame 4650
CH@@ 4649
eld@@ 4649
couples 4649
Islands 4648
Bos@@ 4647
f, 4645
Som@@ 4645
Fle@@ 4644
de-@@ 4643
49@@ 4643
talk 4642
Welsh 4642
Not@@ 4642
filmed 4641
ching 4640
tered 4639
surviving 4639
institutions 4638
Company, 4638
tics, 4638
Tamil 4636
Prix 4636
boy@@ 4635
Point 4634
Mol@@ 4633
organ@@ 4632
Local 4631
"s 4631
ator, 4630
architecture 4629
poverty 4627
versus 4624
eng 4623
cancer 4623
dig@@ 4621
pay@@ 4620
anniversary 4620
Juan 4616
Eric 4616
lay 4616
liv@@ 4615
Water@@ 4615
ela 4615
(16@@ 4614
ceremony 4614
open@@ 4613
ever@@ 4612
g. 4611
cle@@ 4609
coun@@ 4609
print 4609
"-@@ 4608
wooden 4607
tin 4606
continuing 4606
ads 4605
organisation 4604
commission 4604
unknown 4603
contrac@@ 4603
Franc@@ 4601
Bou@@ 4601
hold@@ 4601
electoral 4601
Sing@@ 4601
Beach 4600
los@@ 4599
tot@@ 4598
ati 4598
trip 4598
Douglas 4597
studying 4597
neighborhood 4597
lets 4595
V. 4595
service. 4595
ado 4595
onal 4594
finding 4594
ew 4594
elev@@ 4593
il, 4592
birds 4592
achieve 4591
details 4590
Youth 4589
rang@@ 4588
SP@@ 4588
surrounded 4587
Kim 4587
dominated 4587
constituency 4585
by, 4583
portrayed 4583
How@@ 4582
critics 4580
ith 4579
Lower 4577
competing 4577
economy 4577
users 4576
ova 4576
driven 4575
ood. 4575
aker 4575
claiming 4573
S, 4572
( 4572
? 4571
requires 4570
affiliated 4565
ography 4565
Rod@@ 4565
box@@ 4565
single, 4564
China, 4564
Hungarian 4563
shor@@ 4562
Championship. 4562
oral 4562
Patrick 4562
identity 4562
"Z@@ 4561
arri@@ 4561
prof@@ 4561
1960 4560
respect 4556
offering 4556
ranking 4556
ler, 4555
lay@@ 4555
her, 4554
show, 4553
"La 4552
10th 4551
arrival 4551
resistance 4548
ved 4548
attracted 4548
aking 4548
company's 4546
dam@@ 4546
1/@@ 4543
aul@@ 4543
1998. 4543
Ukrainian 4542
phone 4542
prot@@ 4541
call@@ 4541
Angel@@ 4539
Kevin 4539
Wol@@ 4537
wins 4537
EP 4534
be, 4533
1948 4533
Jesus 4532
request 4531
ero@@ 4530
German@@ 4530
8). 4530
landing 4529
Rac@@ 4528
64 4528
ination 4527
Squadron 4527
use. 4526
Lind@@ 4526
Trans@@ 4525
Victorian 4525
55 4525
strength 4525
Island, 4524
stro@@ 4524
ab 4523
IN@@ 4521
Rang@@ 4521
anj@@ 4521
countries. 4520
weapons 4519
Fran@@ 4518
cro@@ 4518
ins. 4518
missions 4517
Shortly 4517
Chin@@ 4517
Sav@@ 4516
ture, 4516
far@@ 4515
aspects 4515
Rav@@ 4514
yl 4513
Od@@ 4513
community. 4512
1966 4511
ages, 4510
Dom@@ 4510
club's 4509
deputy 4508
session 4507
mu@@ 4506
1965 4506
y." 4505
ets. 4505
ages. 4504
Hur@@ 4503
mill 4503
downtown 4503
itch@@ 4502
fa@@ 4501
's, 4501
send 4499
eighth 4498
Baseball 4498
world@@ 4495
whilst 4495
courses 4494
massive 4493
Park@@ 4492
guard 4491
ven 4491
ah, 4491
politics 4490
country, 4488
draft 4486
group. 4486
graduating 4484
she@@ 4481
offensive 4480
mort@@ 4480
distinguished 4479
X-@@ 4479
funded 4478
consider 4477
returns 4477
ax 4477
Camp@@ 4476
S.@@ 4476
friendly 4475
Ray 4475
sions 4475
Miller 4474
text@@ 4474
/km2). 4472
ora 4471
agency 4470
Forces 4468
opp@@ 4465
IV 4464
Final 4463
asp@@ 4463
v. 4463
drawing 4462
wa 4462
!@@ 4461
Anti@@ 4461
cover@@ 4461
bus@@ 4461
ne, 4460
stream 4459
Lea@@ 4458
ily 4456
Studies 4456
again, 4455
colon@@ 4455
sees 4455
tran@@ 4454
Low@@ 4453
mill@@ 4451
parallel 4451
Sig@@ 4450
len 4448
ency, 4448
ough 4448
measure 4448
15th 4448
14th 4447
ald 4447
educ@@ 4447
elle 4447
NS@@ 4445
Cos@@ 4445
46 4443
ries 4441
wave 4439
explained 4438
ami 4437
images 4437
responsibility 4436
ownership 4435
Ah@@ 4434
39@@ 4434
voc@@ 4434
roof 4433
secure 4433
Roger 4433
shire, 4433
ender 4433
fit 4432
popularity 4431
Sn@@ 4430
alleged 4430
flo@@ 4429
lif@@ 4429
Independent 4429
poet 4429
]@@ 4427
Five 4426
ina, 4426
Diego 4424
squadron 4422
Orthodox 4422
Cle@@ 4420
Ho@@ 4420
key@@ 4420
paintings 4420
DNA 4419
ons@@ 4419
Gulf 4419
Vir@@ 4418
driver 4418
road@@ 4418
Road, 4417
brick 4415
eh 4414
on) 4414
rick 4413
IC@@ 4413
ging 4412
1980s, 4411
multi@@ 4411
ates. 4410
eck@@ 4409
hosts 4408
parliamentary 4408
traveled 4407
Song 4405
gro@@ 4401
Pad@@ 4401
tier 4399
Jer@@ 4399
main@@ 4398
Japan. 4397
six@@ 4397
intelligence 4397
amateur 4396
Paris, 4396
ers" 4396
SE@@ 4394
Rap@@ 4392
Land 4392
threatened 4392
ress 4391
vir@@ 4391
occasionally 4389
ge, 4388
(194@@ 4388
Japan, 4388
ti 4387
?" 4387
1990s 4387
ca 4386
pra@@ 4386
prime 4382
worldwide 4381
ency. 4381
interests 4379
past@@ 4379
cel@@ 4376
girl@@ 4375
visiting 4375
1990s, 4375
kar@@ 4373
Cambridge 4371
170@@ 4370
Pu@@ 4369
Hav@@ 4368
freedom 4367
(193@@ 4367
ro, 4367
dy@@ 4366
Press 4366
shaped 4365
railroad 4365
prize 4361
(O@@ 4361
Li 4360
Anna 4360
System 4360
tor. 4360
predic@@ 4356
600 4355
measures 4355
bass 4355
sit@@ 4352
Cel@@ 4352
final. 4350
narrow 4350
Bran@@ 4348
Modern 4348
endemic 4346
Ear@@ 4346
meets 4345
Ali@@ 4345
toured 4344
Hand@@ 4342
whereas 4342
Moscow 4340
ill, 4340
old. 4339
fixed 4339
Port@@ 4339
law, 4339
ality. 4338
Sud@@ 4338
%, 4338
Hispanic 4337
reign 4336
und 4335
Ow@@ 4333
engines 4333
personnel 4332
Vic@@ 4332
values 4331
Carl 4329
osi@@ 4329
ulation 4329
facing 4327
"Al@@ 4327
ences, 4327
domin@@ 4326
burg, 4325
ves, 4324
ver, 4324
ı@@ 4323
blu@@ 4323
ai, 4323
Lang@@ 4322
Sus@@ 4321
resid@@ 4321
Korea 4321
Italy, 4320
aci@@ 4320
stre@@ 4320
oid 4319
spoke 4319
Cup, 4319
organised 4318
43 4317
tain@@ 4316
Africa, 4314
To@@ 4314
pin@@ 4313
iss@@ 4313
then, 4312
ok 4312
valley 4310
remainder 4310
defending 4309
enh@@ 4308
Aqu@@ 4307
ough@@ 4306
Au@@ 4304
daughter, 4303
conver@@ 4303
Dan 4302
Max 4302
inhabitants 4302
CEO 4301
Within 4300
Engineering 4298
sist@@ 4297
goods 4297
homes 4296
ect 4296
Queensland 4296
flag 4294
Jon@@ 4294
attributed 4294
ho@@ 4294
guitarist 4290
species, 4290
1997. 4288
mean@@ 4288
Vel@@ 4287
posted 4287
engineer 4287
49 4287
Party. 4287
piano 4286
ree 4286
°@@ 4285
describe 4284
Pot@@ 4284
Belgian 4284
strike 4283
nic@@ 4282
Produc@@ 4281
treated 4281
areas. 4281
races. 4277
stores 4277
amongst 4276
red, 4275
script 4273
River@@ 4273
tioned 4272
turning 4270
regiment 4270
period@@ 4269
communication 4269
Affairs 4269
long-@@ 4268
Margaret 4268
MA 4268
incident 4268
vice 4268
event. 4268
depending 4267
1989, 4267
Internet 4267
wat@@ 4266
township 4266
C.@@ 4265
existed 4263
Nation@@ 4263
chang@@ 4263
Oper@@ 4262
residing 4262
fashion 4260
denied 4260
Cri@@ 4260
qualifying 4260
swe@@ 4259
an) 4259
bran@@ 4258
ID@@ 4258
song@@ 4257
Town@@ 4257
differ@@ 4256
han 4256
Sat@@ 4256
zone 4254
er". 4254
Temple 4254
NBA 4254
environment 4252
Jar@@ 4252
threat 4251
eti@@ 4251
spar@@ 4251
Pin@@ 4250
Gordon 4249
origin@@ 4243
membership 4243
ales 4242
Vietnam 4241
ink 4240
quarter@@ 4239
House, 4239
song, 4238
reputation 4237
men. 4236
ME@@ 4236
shoot@@ 4234
ot. 4232
Christi@@ 4230
youngest 4230
long, 4227
cli@@ 4227
viewed 4226
Russia. 4225
feel 4224
as" 4224
App@@ 4223
case, 4222
11th 4222
y), 4222
ito 4222
fort 4222
Cop@@ 4221
conduct 4220
Kol@@ 4218
Rich@@ 4218
ops 4218
PA 4218
Governor@@ 4216
etic 4216
aria 4216
Coun@@ 4213
Jack@@ 4212
Colorado 4211
Minnesota 4211
ban 4210
techniques 4209
ust 4209
slow 4206
Until 4205
(The 4205
oes 4204
Judge 4204
objects 4204
OS 4202
Ot@@ 4202
ez 4202
iro 4201
So 4200
Comm@@ 4200
critic 4200
Ken@@ 4199
Egyptian 4198
disc@@ 4198
hr@@ 4197
oned 4196
neuro@@ 4195
l. 4195
gradually 4195
10,000 4194
Ontario 4194
shar@@ 4193
six-@@ 4193
Management 4193
speak 4193
School@@ 4192
Not 4191
Pun@@ 4191
film's 4190
Ryan 4187
ila 4186
Pra@@ 4185
ity@@ 4185
compilation 4185
Gmina 4184
1996. 4182
Hollywood 4181
credit 4180
effectively 4179
donated 4179
ode 4179
ce@@ 4178
Stre@@ 4178
low@@ 4178
widespread 4177
rig@@ 4175
ali 4175
Your 4174
Lan@@ 4174
Ori@@ 4174
release, 4173
Sund@@ 4173
reality 4172
apparently 4172
Matt 4171
etc. 4170
pain@@ 4169
sti@@ 4168
five-@@ 4168
ep 4168
scholars 4167
(2@@ 4167
commanded 4167
academ@@ 4167
grand 4166
recommended 4166
region, 4166
Bowl 4166
5,000 4165
Senator 4164
ative, 4164
cab@@ 4163
(W@@ 4162
N. 4162
ula 4160
nov@@ 4160
concerns 4160
Liber@@ 4160
phon@@ 4160
grow 4158
building, 4156
"Th@@ 4155
days. 4155
otherwise 4155
violence 4154
Under@@ 4153
hab@@ 4153
works, 4152
hundreds 4151
items 4151
us", 4150
designs 4150
est. 4149
MP 4149
enjoyed 4148
be. 4147
tell 4147
unusual 4147
indicated 4147
days, 4146
abad 4144
background 4144
US$@@ 4143
College. 4143
regim@@ 4142
path 4142
accept 4142
fly 4142
ped 4141
wear 4140
picked 4139
1956 4139
title. 4139
Services 4139
ray 4137
Dean 4136
Defense 4135
steam 4135
aph@@ 4134
5,@@ 4134
1944 4134
ham, 4134
Alex 4131
system@@ 4131
shooting 4131
faculty 4131
Rou@@ 4130
Pro 4130
aling 4128
Nic@@ 4128
1962 4128
Ton@@ 4128
Af@@ 4127
printed 4125
critic@@ 4124
device 4124
picture 4123
o) 4122
val 4122
Hamilton 4121
Global 4120
Py@@ 4117
og 4117
missing 4115
in" 4114
ograph@@ 4113
encouraged 4113
1970s, 4113
contested 4113
D-@@ 4113
Vice 4111
don't 4111
aer@@ 4110
householder 4110
om, 4110
ort 4109
drop 4109
Afric@@ 4108
ft, 4108
which, 4107
club, 4106
Project 4105
district. 4105
Sl@@ 4104
ex-@@ 4102
actors 4102
Hop@@ 4101
households, 4100
color@@ 4100
knew 4100
Gun@@ 4099
ides 4099
Ever@@ 4098
nar@@ 4097
eleven 4097
Fu@@ 4097
country's 4096
Command@@ 4096
shop 4095
ery. 4095
inst@@ 4094
ira 4093
earning 4093
favor 4093
art, 4093
manufacturing 4093
10. 4092
Allen 4090
fro@@ 4090
Dep@@ 4090
pur 4089
assi@@ 4089
fix@@ 4089
stages 4089
costs 4087
islands 4086
Band@@ 4086
1942 4085
licensed 4085
White, 4084
broad 4083
abl@@ 4081
Ele@@ 4081
animated 4079
musicians 4079
poll@@ 4079
1995. 4078
lists 4078
theater 4078
differences 4077
(V@@ 4076
ils 4076
controversial 4075
hits 4075
immediate 4075
assist 4075
bomb@@ 4074
ley@@ 4073
Pop@@ 4072
52 4070
routes 4070
ern 4069
oth 4068
audio 4067
at-@@ 4066
Time 4065
Hil@@ 4065
1950s 4064
Wel@@ 4063
Christopher 4063
Iron 4062
trading 4062
album's 4062
": 4062
Clark 4060
reportedly 4060
eff@@ 4059
seek 4059
banks 4059
eter 4059
learn 4056
ured 4056
Broadway 4056
(3@@ 4056
vocal 4055
BA 4054
east@@ 4054
crow@@ 4054
bird 4052
fel@@ 4050
Sciences 4050
ite, 4049
industry. 4048
replacement 4047
occupation 4047
Off@@ 4047
1963 4047
poetry 4046
ha, 4046
events. 4046
indigenous 4046
MA@@ 4046
observ@@ 4045
composition 4044
architectural 4042
employees 4042
flat 4041
yc@@ 4041
greatly 4041
generated 4039
degrees 4039
hip 4039
Ok@@ 4035
PA@@ 4035
grant 4035
nat@@ 4035
UEFA 4034
Commander 4034
Tim 4034
visible 4033
Shel@@ 4033
standards 4033
Rights 4032
obtain 4031
800 4030
Lyn@@ 4030
assist@@ 4029
Township 4029
Lincoln 4029
Dave 4029
soundtrack 4027
Bruce 4027
1945, 4026
element 4026
use, 4025
documents 4025
flow@@ 4024
chair@@ 4024
Sor@@ 4022
Officer 4022
persons 4022
characterized 4022
esh 4022
fish@@ 4021
approval 4021
Around 4021
Mik@@ 4020
Family 4020
benefit 4019
urg@@ 4019
heat 4019
scrip@@ 4018
rain 4018
Hotel 4018
Norman 4017
species. 4017
TA 4016
eas@@ 4016
normally 4016
emerged 4016
King's 4015
Rh@@ 4015
Jane 4014
challenge 4014
site. 4013
Thus, 4013
fan 4013
e.@@ 4012
ell. 4011
Lawrence 4010
"p@@ 4009
Netherlands 4009
1946 4008
Lag@@ 4007
play, 4007
wea@@ 4006
1987, 4005
sector 4005
oy 4004
M-@@ 4004
hand, 4004
sens@@ 4003
Athletic 4003
DC 4003
involvement 4002
9). 4002
instrumental 4001
Building 4001
Entertainment 4000
ous. 4000
Night 4000
used. 4000
first-class 3999
sle@@ 3999
ga@@ 3999
north@@ 3998
ea 3998
rival 3998
pel@@ 3997
substantial 3997
Pil@@ 3996
Alexand@@ 3995
ready 3995
azz@@ 3995
attending 3994
Voivodeship, 3993
Wom@@ 3993
Lou@@ 3993
erc@@ 3992
assistance 3992
ye 3991
aim 3989
Rev@@ 3989
ost 3989
position. 3988
P, 3987
nomin@@ 3986
point, 3986
philosophy 3985
conduc@@ 3985
Serbian 3983
Dou@@ 3982
law. 3982
ty. 3980
shel@@ 3979
bert 3979
gender 3979
erected 3977
Treaty 3976
film@@ 3976
seeking 3976
object 3975
ential 3974
intersection 3974
berg, 3974
12.@@ 3973
underground 3973
B, 3973
deployed 3973
humans 3973
ev 3972
FIFA 3970
proper 3970
1986, 3970
fal@@ 3969
ed) 3969
shares 3967
Eng@@ 3967
Brigade 3966
corporate 3965
frequency 3963
sailed 3962
"In 3962
1988, 3961
constant 3961
contest 3960
boundary 3960
Itali@@ 3959
declined 3959
passengers 3958
Cow@@ 3957
(4@@ 3956
west, 3954
Square 3953
assembly 3952
dog@@ 3952
round. 3951
Guard 3950
): 3949
Eli@@ 3949
translation 3949
electro@@ 3948
rapid 3948
ines. 3947
wild@@ 3947
i's 3946
marks 3945
establishing 3945
creative 3944
tive. 3944
less@@ 3944
"k@@ 3944
100@@ 3944
K-@@ 3944
Oc@@ 3943
aimed 3943
van@@ 3942
gard@@ 3942
11.@@ 3941
1992. 3941
Light 3940
Ep@@ 3940
Street. 3939
Z 3938
emergency 3938
depth 3934
P-@@ 3934
eye 3933
poem 3932
ams 3932
criticism 3931
Phil@@ 3930
Test 3930
1941 3928
Sul@@ 3928
ater 3927
Administration 3926
Opera 3925
era, 3925
Marie 3924
Ari@@ 3924
Bell 3924
1939 3923
Sarah 3923
tennis 3923
Juli@@ 3922
construc@@ 3921
happ@@ 3920
bed@@ 3920
ak, 3920
acid 3917
Alfred 3917
Jimmy 3917
Fac@@ 3917
α@@ 3916
aw 3916
aine 3915
coverage 3915
hur@@ 3915
Fal@@ 3914
ower 3913
progres@@ 3913
"U@@ 3912
assisted 3911
eds 3911
competitive 3911
Anderson 3911
completion 3911
Bh@@ 3910
pro-@@ 3909
Kil@@ 3909
inj@@ 3909
feed 3909
ext@@ 3909
web 3907
associate 3906
under-@@ 3905
O. 3905
Andy 3905
al) 3904
ture@@ 3903
produces 3902
ish. 3900
Having 3899
dale 3899
ills 3899
Donald 3899
satellite 3898
ver. 3898
Gall@@ 3897
Cav@@ 3897
ests 3897
spending 3896
y). 3896
legislation 3896
pattern 3896
inaugural 3895
6,@@ 3895
Tit@@ 3894
tors, 3894
calcul@@ 3894
lar@@ 3892
zon@@ 3892
boys 3892
graphic 3891
compu@@ 3891
elevation 3890
Romanized 3889
ases 3888
others, 3888
service, 3888
home. 3888
relocated 3887
Reserve 3886
imag@@ 3886
Q 3886
tra 3884
race, 3884
led, 3884
solution 3884
ner, 3883
eau 3882
ogen@@ 3882
You@@ 3880
end. 3880
PR@@ 3879
visi@@ 3878
females. 3878
Basketball 3878
1994. 3877
:00 3877
seconds 3877
members. 3876
band, 3874
Detroit 3874
map 3874
begun 3872
safe 3872
churches 3872
Water 3872
recei@@ 3871
communic@@ 3871
limit 3871
Drag@@ 3870
Along 3870
storage 3867
authors 3867
a: 3866
Doctor 3865
1940 3864
achi@@ 3864
ison 3863
factors 3860
s—@@ 3860
photograph@@ 3860
sole 3859
illegal 3859
gene 3859
expression 3858
D, 3858
partly 3858
task 3858
custom@@ 3858
ello 3856
fictional 3855
integrated 3854
secured 3853
competition. 3853
Que@@ 3850
usi@@ 3849
Women 3849
successor 3848
(for 3847
form, 3844
Lis@@ 3844
idi@@ 3844
Houston 3843
Spe@@ 3843
Def@@ 3843
mid 3842
testing 3841
proposal 3840
build@@ 3839
adaptation 3839
conventional 3839
ound@@ 3839
mountain@@ 3839
sang 3839
infl@@ 3838
duties 3838
ols 3836
suffering 3834
ington, 3834
ju@@ 3833
Me 3832
sentenced 3831
1952 3830
myth@@ 3829
connec@@ 3828
Company. 3827
Const@@ 3826
signs 3826
Hard@@ 3826
Throughout 3825
hot 3825
decades 3825
pap@@ 3824
bad@@ 3824
uro@@ 3823
businesses 3823
Rose 3822
program. 3822
ius 3822
process@@ 3821
Italy. 3821
Meg@@ 3821
distribu@@ 3820
bour@@ 3819
well-known 3818
sy 3818
District. 3816
lob@@ 3816
Ale@@ 3815
Cob@@ 3815
Tournament 3815
students. 3813
Laur@@ 3813
suitable 3812
Domin@@ 3812
preserved 3811
survey 3810
Inf@@ 3809
contrast 3808
"We 3808
ator. 3807
Real 3806
prote@@ 3805
Nik@@ 3805
import@@ 3805
ML@@ 3805
spiritual 3804
dam 3803
Steph@@ 3802
1950 3802
(such 3801
CR@@ 3799
1993. 3798
relief 3797
1961 3796
eries 3796
Len@@ 3795
Ireland. 3795
concerned 3795
Ec@@ 3795
missed 3794
technique 3793
pool 3793
explo@@ 3793
looked 3792
ston@@ 3792
0s. 3791
winners 3791
Princess 3790
full-@@ 3790
wick@@ 3790
place, 3789
Champions 3788
club. 3787
publicly 3787
asser@@ 3787
Also, 3786
yed 3785
Billy 3784
Las 3784
appropriate 3783
1947 3782
Latino 3780
applications 3780
concrete 3779
honorary 3779
fund 3778
August, 3777
asc@@ 3775
1985, 3775
level, 3775
rum@@ 3774
Wind@@ 3774
mix@@ 3773
ration 3773
cycle 3772
tors. 3772
Disney 3772
ook@@ 3771
mac@@ 3769
Finnish 3769
night@@ 3769
beg@@ 3768
sculp@@ 3768
cad@@ 3768
perfect 3767
1991. 3767
neither 3766
Radi@@ 3765
drafted 3765
fitted 3764
wild 3764
divisions 3764
q 3764
pped 3764
Jeff 3763
Fur@@ 3762
Rub@@ 3761
(from 3761
Fro@@ 3761
tank 3760
nomination 3758
gh 3758
exam@@ 3757
expedition 3757
partially 3756
then-@@ 3756
priest 3756
Ten 3755
ua 3754
anne 3754
brain 3754
Mot@@ 3753
frequent 3753
closing 3753
Song@@ 3752
ain. 3752
eta 3751
ness, 3751
unincorporated 3751
168@@ 3751
Vas@@ 3750
Victor 3750
km@@ 3750
position, 3750
Dri@@ 3750
-to-@@ 3748
discovery 3748
Crown 3748
Kel@@ 3746
identi@@ 3746
res, 3745
external 3745
1958 3745
water, 3744
-e 3744
1959 3744
Leg@@ 3744
Wy@@ 3743
ements 3743
belonged 3741
Bridg@@ 3741
sex@@ 3740
Gary 3740
Bag@@ 3740
m) 3739
education, 3739
1943 3738
dg@@ 3738
ele 3737
veget@@ 3737
sk 3737
1990. 3736
SS@@ 3736
eldest 3736
ium 3736
string 3736
LL@@ 3735
ce, 3735
rapidly 3735
Jew@@ 3735
Labor 3734
Greater 3733
Road@@ 3733
ther, 3733
event, 3732
graph@@ 3732
exception 3732
Oak@@ 3731
Indiana 3730
Nick 3730
Fame 3729
Camp 3728
1957 3727
allow@@ 3727
Euro@@ 3727
conservative 3726
50,000 3725
eliminated 3725
electrical 3725
musician 3724
47@@ 3724
institution 3724
Sem@@ 3723
weak@@ 3723
mind 3722
deser@@ 3722
Ray@@ 3722
AA 3721
ing". 3721
civilian 3720
lying 3720
а@@ 3720
itz 3720
franchise 3719
rup@@ 3718
mast@@ 3718
rob@@ 3717
fled 3717
connecting 3717
Arizona 3716
top-@@ 3716
2,000 3716
Sweden 3716
uring 3715
minimum 3715
som@@ 3714
Allied 3714
Sant@@ 3714
home, 3713
and-@@ 3712
Representatives 3711
carbon 3711
Crow@@ 3711
ol, 3709
trad@@ 3709
Islam@@ 3709
(later 3708
Iranian 3706
esti@@ 3706
artillery 3705
show. 3704
S) 3704
contribution 3704
detailed 3704
Dick@@ 3703
cha@@ 3703
waters 3702
(192@@ 3702
ABC 3701
penalty 3701
follow@@ 3701
Originally 3701
boats 3701
suspended 3701
00,000 3700
venture 3700
ing's 3700
depart@@ 3699
August@@ 3699
66 3696
din@@ 3696
tag@@ 3696
Jean-@@ 3696
160@@ 3694
ading 3694
ships, 3694
Mit@@ 3694
Village 3693
d" 3693
side@@ 3693
ill. 3692
Kennedy 3691
vocals 3691
pick 3689
supports 3688
Stanley 3688
Training 3688
indicate 3688
Sec@@ 3687
je@@ 3687
ded 3685
Johnny 3685
resolution 3685
ing: 3685
cru@@ 3684
dge 3684
arti@@ 3683
shire. 3682
ador@@ 3682
hat@@ 3682
Romanian 3681
expres@@ 3681
sent@@ 3680
character@@ 3680
Ther@@ 3679
rich@@ 3678
outer 3678
ashi@@ 3677
so-called 3676
eding 3675
omb@@ 3675
message 3674
pursue 3674
command@@ 3673
possibility 3672
completing 3672
lec@@ 3671
projec@@ 3671
aga 3670
Nam@@ 3669
wine 3669
tig@@ 3669
operational 3668
tend 3668
danc@@ 3667
bil@@ 3665
apping 3665
Sou@@ 3664
habitat 3664
questions 3664
Baron 3663
ke. 3663
Princ@@ 3663
Feder@@ 3661
resident 3661
champions 3661
cycl@@ 3660
transition 3659
inal 3658
process. 3658
ice, 3657
Boo@@ 3657
Admiral 3657
motor 3656
recordings 3656
terminus 3656
touring 3654
anything 3654
experimental 3654
present@@ 3654
ased 3653
west. 3653
thousand 3652
Kra@@ 3652
accounts 3651
Cou@@ 3651
comple@@ 3650
reasons 3648
1960s, 3648
opinion 3648
ota 3646
broadcasting 3645
ceased 3645
Windows 3643
48@@ 3642
bone 3642
esp@@ 3642
bid 3642
ped@@ 3642
Fellow 3641
bott@@ 3637
ana. 3637
chem@@ 3637
Kl@@ 3637
Trust 3637
Liverpool 3636
religion 3635
Such 3634
ing", 3633
ere@@ 3632
IR@@ 3632
September, 3632
Squ@@ 3631
ious 3631
crossed 3631
250 3629
vision 3629
ish-@@ 3629
tory 3629
labor 3629
1920 3629
services. 3629
1000 3628
claim@@ 3628
behalf 3628
tou@@ 3627
Angeles, 3626
are: 3625
Pow@@ 3625
Fab@@ 3625
aliz@@ 3625
54 3624
23@@ 3624
participation 3624
turn@@ 3623
innings 3622
owed 3622
Tul@@ 3622
sung 3621
ert 3621
lawyer 3620
Hall, 3619
ruling 3619
Ji@@ 3619
ement@@ 3618
1984, 3617
identify 3616
vide@@ 3616
*@@ 3616
play. 3615
kick@@ 3614
n's 3614
eigh@@ 3614
none 3613
policies 3613
Mart@@ 3613
traded 3612
1936 3611
ir, 3611
illustr@@ 3610
language. 3609
Mexico. 3608
Quebec 3607
Economic 3607
rie 3606
Palace 3606
race. 3606
Bet@@ 3606
u" 3605
ag 3605
hyper@@ 3604
belonging 3603
lap 3603
ens. 3602
tures 3601
extreme 3601
skills 3601
advis@@ 3601
Jason 3601
Cricket 3601
cent 3600
travelled 3600
surviv@@ 3599
flu@@ 3599
ent's 3599
mi 3599
match, 3598
Matthew 3597
district, 3597
spl@@ 3597
Mov@@ 3596
atic@@ 3596
present-day 3596
seeing 3595
light@@ 3595
Oregon 3594
ninth 3594
Main@@ 3593
1954 3592
branches 3591
males 3591
Missouri 3591
camera 3590
infantry 3589
back. 3588
ugg@@ 3588
focuses 3588
?@@ 3588
longest 3585
51 3584
and/or 3584
Grade 3583
web@@ 3582
reform 3582
1980, 3582
Deb@@ 3581
ness@@ 3581
experiences 3580
Railroad 3580
hang@@ 3580
10-@@ 3579
M.@@ 3579
village. 3578
ra. 3578
displayed 3577
1955 3577
south@@ 3576
outs 3576
plain 3575
Sz@@ 3574
house@@ 3573
useful 3573
2" 3572
Information 3571
Bachelor 3571
и@@ 3571
vast 3571
easy 3571
Ann 3570
Rel@@ 3569
Archbishop 3569
ising 3567
ney, 3566
finals 3562
Hear@@ 3561
shore 3561
Mississippi 3560
development. 3559
People 3559
Socialist 3559
cable 3558
definition 3558
good@@ 3558
Brit@@ 3556
Command 3556
Trade 3555
walk 3554
nit@@ 3554
Rail@@ 3552
solid 3552
fishing 3551
terminal 3551
t) 3550
responded 3550
suburb 3549
voting 3549
organiz@@ 3549
It's 3549
tering 3549
Cleveland 3548
landed 3547
lad@@ 3547
ush 3546
group@@ 3545
Just 3544
vin@@ 3544
Histor@@ 3543
countries, 3542
team@@ 3541
carri@@ 3541
ond 3539
Doc@@ 3538
window 3538
meters 3537
"My 3537
thor@@ 3536
mechanical 3536
aster 3535
till@@ 3535
trou@@ 3535
Turk@@ 3533
decline 3532
Ocean 3532
bag@@ 3532
housed 3532
1989. 3530
pass@@ 3530
months. 3529
debate 3529
pric@@ 3529
fair 3528
per, 3528
appeal 3528
executed 3528
rising 3527
ulate 3525
Council. 3524
ks@@ 3524
rebuilt 3522
1953 3522
1979, 3522
1949 3521
asks 3521
ranging 3519
Journ@@ 3519
garden 3519
beating 3518
Dol@@ 3518
friend@@ 3518
Association. 3518
Jan 3518
ool 3517
wearing 3517
ented 3517
style. 3516
aging 3516
ize 3515
departure 3515
Jos@@ 3515
Down@@ 3514
Carlos 3513
ward@@ 3513
Bureau 3512
organ 3511
Cru@@ 3511
premiere 3511
(15@@ 3510
ps, 3510
elled 3510
maj@@ 3509
ality, 3509
falling 3508
points, 3508
happened 3507
Naz@@ 3506
Rain@@ 3506
onia 3505
NHL 3505
ae. 3504
Nu@@ 3503
gone 3503
Bec@@ 3503
ture. 3501
originated 3501
everything 3501
sci@@ 3500
cod@@ 3500
c. 3500
chapter 3498
restricted 3498
d's 3497
remove 3497
qui@@ 3497
plant@@ 3497
idae 3495
flew 3495
buy 3494
judg@@ 3493
Miami 3493
pointed 3491
statue 3491
guitar@@ 3491
Part 3491
four@@ 3490
bir@@ 3490
form. 3490
List 3490
Grant 3489
own. 3489
tic. 3487
wounded 3487
Program 3487
Ath@@ 3487
Construction 3486
unlike 3485
Morgan 3485
Bour@@ 3484
full-time 3484
chap@@ 3484
ick, 3483
hop@@ 3482
ol. 3482
Holl@@ 3482
Spain. 3481
Kelly 3479
tail@@ 3479
collabor@@ 3477
initiated 3476
44, 3476
ong, 3476
gers 3475
today. 3475
atives 3473
64, 3473
strategic 3473
linear 3473
Roy 3472
1972, 3471
Silver 3471
memorial 3471
rescue 3470
dro@@ 3470
decade 3470
marketing 3470
sum 3470
first, 3470
Energy 3470
involves 3469
books, 3469
(U@@ 3468
95 3468
continuous 3468
traditionally 3467
Russell 3467
Alb@@ 3467
Count 3466
Walker 3466
otic 3466
Christ 3466
Party, 3465
Warner 3464
Ireland, 3463
Wisconsin 3463
exclusively 3463
eshi@@ 3462
BC, 3462
milli@@ 3461
advertising 3461
I) 3461
Division. 3459
evening 3458
till 3457
Ross 3457
Yu@@ 3457
Tennessee 3457
Males 3456
cit@@ 3456
reveals 3456
mand@@ 3455
exposed 3454
submarine 3454
Regi@@ 3453
handed 3453
Gur@@ 3451
1944, 3451
mechan@@ 3451
output 3451
ely, 3451
Benjamin 3449
streets 3448
Russi@@ 3447
races, 3447
painter 3446
Hell@@ 3446
jo 3445
ody 3445
dest@@ 3442
October, 3442
kers 3442
13.@@ 3442
Brazil 3441
itch 3441
progress 3441
vor@@ 3440
ses@@ 3440
lan@@ 3440
violent 3440
ood 3439
habit@@ 3439
wood, 3438
Mexico, 3438
53 3437
iri@@ 3437
Hou@@ 3437
fig@@ 3436
Player 3436
closure 3436
bol@@ 3436
representation 3436
ected 3435
skin 3435
SO@@ 3434
Record@@ 3434
windows 3433
strategy 3433
neg@@ 3433
Rud@@ 3433
cot@@ 3433
w, 3432
emo@@ 3432
Texas. 3431
adul@@ 3431
hea@@ 3431
story, 3431
junction 3430
medals 3430
Gul@@ 3429
roy@@ 3429
subjects 3428
astic 3427
Peace 3426
Tan@@ 3426
substitute 3425
points. 3425
third-@@ 3424
eling 3424
respective 3423
mad@@ 3422
56 3422
demonstrated 3422
kill@@ 3422
unt@@ 3422
May, 3421
Montreal 3421
ining 3421
choose 3420
manufactured 3420
closer 3420
Constitution 3419
cold 3418
defended 3417
lose 3417
clearly 3417
contributing 3417
helps 3416
Singles 3415
(formerly 3414
tics. 3414
by-@@ 3413
option 3413
whe@@ 3413
et" 3413
Ord@@ 3412
office. 3412
lap@@ 3412
о@@ 3411
et-@@ 3411
nur@@ 3411
Murray 3411
July, 3411
soccer 3409
histor@@ 3409
eth 3409
hearing 3409
lieutenant 3409
Moore 3408
prisoners 3408
Will 3408
Mack@@ 3408
belief 3408
Thi@@ 3408
apply 3407
supposed 3407
air, 3407
producers 3407
duo 3406
ports 3406
schools, 3405
ancy 3404
Anim@@ 3404
era. 3404
ually 3403
7,@@ 3403
burg. 3402
file 3402
ris 3401
soil 3401
Island@@ 3401
clim@@ 3401
concentration 3401
Web@@ 3400
influ@@ 3400
Ian 3399
ager 3398
Convention 3398
arrang@@ 3398
Rab@@ 3398
eligible 3397
Post 3397
Pierre 3396
scheme 3396
TE@@ 3396
locality 3395
1970, 3395
osh@@ 3395
cross-@@ 3393
0). 3393
ails 3393
Franklin 3392
organic 3392
aki 3392
Work@@ 3388
occup@@ 3388
art. 3387
promoting 3387
Festival. 3387
What 3386
Karl 3386
Jur@@ 3386
exist@@ 3385
(190@@ 3385
collaborated 3384
Bun@@ 3383
jud@@ 3383
Row@@ 3383
did@@ 3382
load 3382
oot@@ 3381
document 3381
Maz@@ 3380
Girl@@ 3380
ken@@ 3380
el-@@ 3380
essed 3380
ont 3380
diverse 3380
iss 3379
universities 3379
Times 3379
ow. 3378
85 3378
Center, 3378
off-@@ 3377
62 3377
tin@@ 3376
r. 3376
retail 3374
ard's 3374
intr@@ 3374
Fel@@ 3374
Ell@@ 3374
refer@@ 3373
suggest 3373
Pav@@ 3373
coaching 3373
voic@@ 3372
1951 3372
1918 3372
ing) 3371
clinical 3370
Fol@@ 3370
MS 3370
bec@@ 3369
tail 3369
1928 3369
childhood 3368
Kaz@@ 3368
liz@@ 3368
repeated 3368
tournament. 3367
submitted 3367
roots 3367
Brad@@ 3366
administr@@ 3365
Universal 3365
dominant 3364
inch 3364
Bot@@ 3364
devoted 3363
suit 3362
Assistant 3362
touchdown 3362
ved. 3361
interven@@ 3361
understand 3361
popul@@ 3361
eo 3360
ont@@ 3359
bles 3358
Fine 3357
Defence 3357
ligh@@ 3356
gram@@ 3356
Asi@@ 3355
f. 3355
venue 3355
Alliance 3354
mic@@ 3353
match. 3352
discussed 3352
By@@ 3352
acqu@@ 3352
Kentucky 3351
members, 3350
182@@ 3350
description 3350
cler@@ 3349
withdrew 3349
watch 3348
theor@@ 3348
church, 3346
represent@@ 3346
draw@@ 3346
cos@@ 3346
tured 3345
absence 3345
dog 3344
pup@@ 3343
rist@@ 3343
rain@@ 3341
representatives 3341
Sup@@ 3341
papers 3340
add 3339
Oklahoma 3339
Yam@@ 3339
exhibited 3339
Constitu@@ 3339
1983, 3339
Aut@@ 3336
1982, 3336
Ey@@ 3335
subsidiary 3335
accident 3335
ranks 3334
21st 3334
bishop@@ 3334
consum@@ 3334
rub@@ 3333
passage 3333
defence 3333
wants 3333
Jacob@@ 3332
IP@@ 3332
Studios 3332
ni 3331
Hot@@ 3330
ise, 3330
Commun@@ 3330
uz@@ 3328
AL@@ 3328
arding 3328
thes@@ 3328
essential 3327
practical 3327
ession 3326
Lad@@ 3325
locally 3324
placing 3324
atively 3324
intention 3324
1938 3324
restaurant 3323
ley. 3323
count 3323
telling 3322
Revolution 3322
SS 3322
percentage 3322
aud@@ 3322
Micha@@ 3321
Run@@ 3321
zh@@ 3320
osaur@@ 3319
links 3319
protest 3319
symbol 3318
eller 3318
constitutional 3318
hair 3318
centuries 3318
Texas, 3316
practices 3316
relation 3315
Dr@@ 3315
Spain, 3313
requ@@ 3313
Cad@@ 3312
Hall@@ 3310
factor@@ 3310
expensive 3309
var@@ 3309
visitors 3308
William@@ 3308
ation: 3308
victims 3308
fru@@ 3307
disc 3307
CC@@ 3307
speak@@ 3307
requested 3307
transportation 3307
sted 3307
Marshall 3307
Furthermore, 3307
natur@@ 3306
Tem@@ 3306
tom@@ 3306
vessels 3305
Kr@@ 3304
Soon 3304
journey 3304
Confederate 3304
Jay@@ 3304
CBS 3304
ocks 3303
broad@@ 3303
annually 3303
Today, 3303
ida 3303
mon 3302
politician. 3302
ears 3301
rever@@ 3301
Singapore 3301
port, 3300
grave 3299
Chang@@ 3299
G-@@ 3299
encing 3297
mig@@ 3297
63 3297
Equ@@ 3296
apparent 3295
teachers 3294
Mes@@ 3294
1968, 3293
B.@@ 3293
FL@@ 3292
unn@@ 3292
Harris 3292
Mediterranean 3291
medic@@ 3291
earn 3290
AB@@ 3289
plate 3289
Church. 3289
Natural 3288
0.0@@ 3288
1974, 3288
"An@@ 3287
program, 3286
Jes@@ 3286
morph@@ 3285
Wales, 3285
aug@@ 3285
instruc@@ 3285
eline 3285
eway 3284
title, 3284
inducted 3283
valu@@ 3283
(). 3283
our, 3282
ade. 3282
1917 3282
1975, 3282
land's 3281
Gol@@ 3281
capita 3280
Class@@ 3279
1919 3278
bun@@ 3278
Charlie 3278
outstanding 3277
gall@@ 3277
1971, 3277
motor@@ 3277
vessel 3275
recognised 3275
ade, 3275
ride 3274
decides 3274
Europe@@ 3274
banned 3274
power@@ 3274
a") 3274
solar 3274
legislative 3273
June, 3273
Mrs. 3272
Ten@@ 3272
events, 3272
components 3271
Graham 3271
Age 3271
aus 3271
desire 3270
Six 3270
D.C. 3270
English, 3269
writes 3269
"Wh@@ 3268
together. 3268
atten@@ 3267
ical, 3267
losses 3267
ses, 3267
Ny@@ 3266
nations 3266
Stan@@ 3265
Church@@ 3265
other. 3263
departed 3263
chart. 3262
Vo@@ 3262
Beat@@ 3261
controversy 3260
Bus@@ 3259
72 3259
transi@@ 3259
balance 3258
elli 3258
brother@@ 3258
M) 3257
Bill@@ 3257
raising 3256
1973, 3256
column 3256
concern 3256
agn@@ 3255
Much 3255
eda 3255
Bed@@ 3254
led. 3254
1937 3254
servic@@ 3254
ter-@@ 3253
kins 3253
Bog@@ 3251
ind 3250
Nova 3250
ese, 3249
ity" 3248
seem 3248
burn 3247
supporters 3247
films, 3247
Stone 3247
Live 3246
borders 3246
lic 3246
Iraq 3246
ativ@@ 3246
managing 3245
attempting 3245
doesn't 3244
describing 3244
Nev@@ 3244
Persian 3243
sand@@ 3243
Kingdom. 3243
1987. 3242
ects 3242
Brook@@ 3242
qualify 3241
Works 3241
1924 3240
't 3240
crowd 3239
sufficient 3239
NBC 3239
Chicago, 3238
Jonathan 3237
entertainment 3237
World@@ 3237
Baltimore 3237
ples 3236
cases, 3236
dismissed 3236
steps 3236
Kingdom, 3235
Fred 3235
Fund@@ 3235
school's 3234
ves. 3234
1978, 3234
isolated 3234
fund@@ 3233
imperial 3233
night, 3233
McC@@ 3233
sin@@ 3232
cred@@ 3232
Fire 3232
UC@@ 3231
moral 3231
correc@@ 3230
Philippine 3230
drum@@ 3229
Maryland 3229
curr@@ 3228
tem@@ 3227
commented 3227
1988. 3227
timber 3226
ques@@ 3226
romantic 3225
outbreak 3225
inde@@ 3225
1930 3224
processing 3224
Plac@@ 3224
repe@@ 3223
accessible 3223
language, 3223
genetic 3223
exists 3223
Singh 3222
lowest 3222
copy 3221
Dre@@ 3221
novels 3221
si 3219
Tun@@ 3219
Diocese 3219
vit@@ 3218
Che@@ 3217
office, 3217
separ@@ 3215
Light@@ 3215
context 3214
enters 3214
Army. 3213
ongoing 3212
certified 3211
gal@@ 3210
Kos@@ 3209
maintenance 3208
able@@ 3208
rarely 3208
Gallery 3207
Sao 3207
directors 3207
ub 3206
replac@@ 3206
employment 3206
Louisiana 3206
typ@@ 3205
tile 3205
extensively 3204
Thompson 3203
settlers 3203
extent 3203
beetle 3202
justice 3202
specialized 3200
bing 3200
oa 3198
fam@@ 3198
Island. 3198
panel 3197
designer 3197
possession 3197
areas, 3197
assault 3197
defend 3196
Tour@@ 3196
insurance 3196
coached 3196
component 3196
Spring 3195
consistent 3195
chapel 3195
pick@@ 3194
concerning 3194
pping 3193
riding 3193
belongs 3193
Hindu 3192
feat@@ 3192
1969, 3192
tend@@ 3190
oto 3190
biological 3190
Lub@@ 3190
See 3190
Nad@@ 3189
RE@@ 3189
Mast@@ 3188
1981, 3188
mer, 3186
wheel 3186
shell 3185
ently, 3184
even@@ 3183
behavior 3183
Virginia. 3183
own, 3182
Saturday 3182
demolished 3182
ba@@ 3181
down. 3180
ratio 3180
seed 3179
gay 3178
wider 3178
Egypt 3177
back, 3177
jur@@ 3177
beautiful 3177
medium 3177
power. 3177
wav@@ 3177
project. 3176
bow 3176
Medic@@ 3176
-year-old 3175
MO@@ 3175
behavi@@ 3174
inherited 3174
fill 3173
flag@@ 3172
connect 3172
preferred 3171
more. 3170
Thor@@ 3169
endor@@ 3169
teach@@ 3168
manage 3168
Farm@@ 3168
ach, 3168
formul@@ 3167
was, 3167
ox 3167
Arg@@ 3166
Thir@@ 3166
Buck@@ 3165
non-families. 3164
67 3164
segment 3164
well@@ 3163
recovered 3163
ulated 3163
iy@@ 3163
Rog@@ 3162
Burn@@ 3161
”. 3161
BS@@ 3161
colour 3161
activated 3161
associ@@ 3161
Philippines 3160
House@@ 3160
bath@@ 3160
mention 3159
cargo 3159
enem@@ 3159
an", 3159
fighter 3158
design, 3158
tribute 3157
Dublin 3157
Muhammad 3157
ti, 3157
Therefore, 3157
ester@@ 3155
Nur@@ 3155
Tow@@ 3154
int 3154
Hit@@ 3154
Hart@@ 3154
Capital 3154
Trinity 3153
oma 3153
et's 3153
flowers 3151
compiled 3151
deemed 3151
dou@@ 3151
1945. 3151
Brand@@ 3151
Net@@ 3150
mo 3150
anni@@ 3149
bel 3149
"This 3149
Saudi 3148
ent" 3148
Syn@@ 3148
1976, 3148
Bron@@ 3148
AM 3147
ander 3147
Agency 3146
Jordan 3146
used, 3146
Pass@@ 3146
Review@@ 3146
Xi@@ 3146
requirements 3145
approached 3145
Paris. 3145
ome@@ 3145
Sax@@ 3144
58 3143
Tig@@ 3142
works. 3142
market. 3141
1933 3141
Cultural 3141
er; 3141
vot@@ 3139
Germans 3139
tern@@ 3139
circuit 3139
PC@@ 3139
restoration 3138
anyone 3138
November, 3138
subjec@@ 3138
(18@@ 3138
struggle 3137
il. 3137
ights 3135
yan 3135
board@@ 3134
collections 3134
1985. 3134
co, 3133
Da@@ 3133
Nicholas 3132
moment 3132
1942, 3131
broadcast@@ 3130
gaining 3130
Formula 3130
Vit@@ 3129
destruction 3129
169@@ 3128
Barn@@ 3127
informed 3127
em, 3127
div@@ 3125
express 3124
mate 3124
Vil@@ 3123
extend 3123
screen@@ 3123
ud 3121
every@@ 3120
leton 3120
owing 3119
Lond@@ 3119
ead 3118
h. 3118
Division, 3117
57 3117
Edinburgh 3116
pulled 3115
Metro 3115
drummer 3115
RT@@ 3115
Council, 3114
Virgin 3114
crosses 3114
bound@@ 3111
ras@@ 3111
Studi@@ 3111
numbered 3110
1922 3110
14.@@ 3110
styl@@ 3110
fact, 3110
aire 3109
tow@@ 3108
Thom@@ 3108
north, 3108
Sak@@ 3107
church. 3107
processes 3107
gin@@ 3106
license 3106
appe@@ 3106
1967, 3105
Show 3105
schools. 3104
grows 3104
Has@@ 3103
reaches 3103
pig@@ 3102
expand 3102
wel@@ 3102
ope 3101
latest 3101
Soccer 3101
the-@@ 3101
themes 3101
Virginia, 3101
usion 3101
implemented 3101
Nelson 3100
god@@ 3100
ur, 3099
medicine 3099
ester 3099
fail@@ 3099
Wales. 3099
dia 3098
production. 3098
Wit@@ 3097
ground, 3097
1935 3097
wealthy 3096
Norway 3096
amm@@ 3096
Sid@@ 3095
1986. 3095
Show@@ 3094
Sea@@ 3094
zes 3093
believes 3092
ms, 3092
our. 3092
mix 3092
parliament 3091
Atlanta 3091
devices 3089
concerts 3089
exclusive 3089
minim@@ 3089
Dub@@ 3089
Aer@@ 3089
Pel@@ 3088
Pittsburgh 3088
education. 3088
abor@@ 3087
ures, 3087
Medi@@ 3086
Armenian 3086
tle 3086
1932 3086
ket 3085
tests 3085
Hai@@ 3085
ey. 3085
æ@@ 3085
ept@@ 3084
agents 3084
Iowa 3084
sport@@ 3083
corresponding 3083
tons 3082
everyone 3082
arriving 3082
onian 3081
th" 3080
women. 3080
Vin@@ 3080
evolved 3080
sed, 3080
Sound@@ 3079
systems. 3079
osis 3079
ators. 3079
connects 3078
ures. 3078
12. 3078
genre 3078
or-@@ 3078
ce. 3077
coalition 3077
ically, 3077
1934 3076
Staff 3076
61 3075
One@@ 3075
Group, 3075
permission 3074
Hus@@ 3074
me, 3073
stable 3073
1980s. 3073
monument 3072
merger 3072
Authority 3072
Argentine 3072
switched 3072
aboard 3070
decorated 3070
1929 3070
Those 3070
transmission 3069
Iran 3069
Zh@@ 3068
Road. 3068
Late 3067
CN@@ 3067
swim@@ 3067
wit@@ 3066
convicted 3065
Hugh 3065
etta 3064
1977, 3064
DE@@ 3064
Stewart 3064
prove 3064
fur 3064
Arti@@ 3063
Seven 3063
Republic@@ 3063
fruit 3062
minority 3062
Dallas 3062
researchers 3061
continental 3061
Music@@ 3060
member@@ 3059
ine-@@ 3059
favour 3058
NO@@ 3057
story@@ 3057
king, 3056
aded 3056
cabinet 3056
Fa@@ 3055
RAF 3055
promised 3054
hope 3054
ei 3054
usual 3053
Brother@@ 3053
Pennsylvania, 3053
angle 3053
Joseph@@ 3053
LE@@ 3052
Japan@@ 3052
1984. 3051
giant 3050
1:@@ 3050
tools 3049
mol@@ 3049
Brig@@ 3049
merchant 3049
hood 3048
altern@@ 3048
aries, 3047
seemed 3046
after@@ 3045
publications 3045
aled 3045
Gy@@ 3045
project, 3044
onn@@ 3044
print@@ 3043
master's 3043
crisis 3043
Tex@@ 3043
ase, 3041
"Re@@ 3041
Festival, 3041
Mark@@ 3041
spend 3040
conv@@ 3039
Cho@@ 3039
Garden 3039
rey 3037
Luis 3037
citing 3037
blocks 3037
(189@@ 3037
tz 3036
airing 3036
NY@@ 3036
Men's 3035
Up 3035
Kent 3034
au, 3034
alliance 3034
automatic 3033
movements 3033
"Sp@@ 3033
essentially 3033
Fam@@ 3033
particip@@ 3032
landscape 3032
PC 3032
bomb 3032
continu@@ 3032
cousin 3032
warm@@ 3031
ier 3031
Political 3030
ford@@ 3030
backed 3029
End 3029
supplies 3028
Alice 3028
sar@@ 3028
Mission 3028
enrolled 3027
group's 3026
Fox@@ 3026
Wood 3026
elli@@ 3026
credits 3026
Brothers 3025
174@@ 3025
Front 3025
Battalion 3025
1940, 3023
rati@@ 3023
heim@@ 3022
layer 3022
Cher@@ 3022
fir@@ 3021
120 3021
shopping 3021
Stri@@ 3020
Band 3020
2/@@ 3020
Good 3020
anger 3019
ley's 3019
integr@@ 3018
instruments 3018
Fir@@ 3018
Florida, 3018
77 3017
urb@@ 3016
two-year 3016
abil@@ 3016
diplomatic 3015
59 3015
honour 3015
ound 3015
classification 3015
tenure 3015
participating 3014
69 3014
ists, 3014
Ox@@ 3013
cy 3013
mountains 3013
Sev@@ 3013
bos@@ 3013
scholar@@ 3012
markets 3012
"It 3012
vill@@ 3011
R-@@ 3011
Now@@ 3010
invest@@ 3010
Our 3009
execu@@ 3009
Mountains 3009
reducing 3009
mainstream 3009
Buddhist 3008
Arc@@ 3008
ovic 3008
room, 3008
charter 3008
191@@ 3008
Bureau, 3007
dependent 3007
Club, 3007
Cla@@ 3006
Kle@@ 3006
PhD 3005
1982. 3004
alia 3004
on", 3004
portions 3003
one's 3003
partial 3002
thr@@ 3001
April, 3001
Bis@@ 2999
services, 2999
Seattle 2998
Barry 2998
Dog@@ 2997
Pit@@ 2997
Warren 2997
cav@@ 2997
vary 2996
sed. 2996
indicating 2995
courts 2995
leaf 2994
Ston@@ 2994
1941, 2994
self@@ 2993
round, 2993
Ze@@ 2992
forces. 2992
Scar@@ 2991
(e.g. 2991
Croatian 2991
u-@@ 2991
development, 2991
ographic 2991
ank 2991
ren 2990
alt@@ 2990
1980. 2990
roll 2989
Championship, 2989
Pay@@ 2988
away. 2988
mess@@ 2988
plas@@ 2988
ury 2987
depres@@ 2986
public@@ 2986
guilty 2986
Roll@@ 2986
business. 2985
moves 2984
Sah@@ 2984
movement. 2984
rice 2984
ann 2983
Lane 2983
instance, 2983
Co. 2983
alling 2982
Van@@ 2981
arrest 2981
excellent 2981
sat 2980
success. 2980
ators, 2980
Based 2980
parent 2980
chi 2979
Season 2979
game's 2979
campaign, 2979
1912 2979
700 2979
rar@@ 2979
(J@@ 2978
vin 2978
party. 2978
boards 2978
$3@@ 2977
field@@ 2977
ale, 2977
ridge 2976
destroy 2976
threw 2976
Dut@@ 2975
sure 2975
centers 2974
99 2974
aps 2973
kind@@ 2972
pit 2972
liberal 2972
list. 2971
depicted 2971
MI@@ 2971
renowned 2971
expan@@ 2970
supplied 2970
Adams 2970
Union. 2969
eted 2969
Catal@@ 2969
Indians 2969
ario 2969
AA@@ 2968
"to 2968
cm 2968
efficient 2967
ved, 2966
eur@@ 2965
CC 2965
"Ar@@ 2964
Champion 2964
o". 2963
I'm 2963
ech 2963
Industrial 2963
east, 2963
fron@@ 2963
Microsoft 2963
Hills 2963
M, 2962
Association, 2962
sie 2962
1931 2962
cards 2961
oke 2961
poems 2961
stud@@ 2960
harmon@@ 2960
Din@@ 2959
relevant 2959
ady 2958
forcing 2958
mail 2958
pushed 2958
cup 2958
months, 2957
patient 2957
Mass@@ 2956
bon 2956
band. 2956
1970s. 2956
fifteen 2955
dynasty 2954
aik@@ 2954
ald@@ 2954
(5@@ 2954
Det@@ 2953
ico 2953
individu@@ 2953
ordin@@ 2953
Design 2952
scar@@ 2951
fast@@ 2951
principles 2951
exact 2950
haz@@ 2950
uma 2950
Historical 2950
asts 2949
grass@@ 2949
spir@@ 2948
Berg@@ 2948
1965, 2948
Brun@@ 2948
style, 2948
1927 2948
sitting 2948
groups, 2947
E.@@ 2945
air. 2944
Pul@@ 2942
record. 2942
conserv@@ 2941
commenced 2941
drove 2941
west@@ 2941
NR@@ 2940
stem 2940
ety 2939
1943, 2938
scientists 2938
1923 2938
Morris 2938
sharing 2938
Tokyo 2938
Leon@@ 2938
domain 2937
Cathedral 2937
Theat@@ 2937
mont 2937
Russia, 2937
indicates 2937
Alabama 2937
1914 2936
mir@@ 2936
F) 2936
emi@@ 2936
relegated 2936
Robinson 2936
een 2935
Common 2935
Nav@@ 2935
market@@ 2934
Carter 2934
ante 2934
Bru@@ 2934
fear 2933
Way@@ 2933
"[@@ 2932
1983. 2932
tribe 2932
ina. 2932
snow@@ 2931
alled 2931
Daily 2931
production, 2931
princ@@ 2930
sort 2930
ologists 2928
communications 2926
insul@@ 2926
alle@@ 2926
immigrants 2926
"De@@ 2925
ses. 2925
Broadcasting 2925
ces 2924
shift 2924
Pack@@ 2924
eland 2923
reduction 2923
1930s 2923
Sci@@ 2922
road. 2921
tioning 2921
Bud@@ 2919
L-@@ 2918
rul@@ 2918
lane 2918
D.@@ 2918
resumed 2918
ection 2918
Kap@@ 2917
himself. 2917
dispute 2916
false 2916
agg@@ 2916
heritage 2916
control@@ 2914
Soci@@ 2913
referring 2913
cross@@ 2913
conclusion 2912
167@@ 2912
ital 2912
burg@@ 2912
Baptist 2912
bear 2911
forests 2910
Tower 2910
classi@@ 2910
talent 2910
Wa@@ 2909
86 2909
Municipal 2908
68 2908
4; 2908
batt@@ 2908
Commissioner 2908
Campbell 2908
100,000 2908
Kell@@ 2908
manner 2907
que@@ 2906
friend, 2906
VI 2906
Wayne 2906
Army, 2906
Kin@@ 2906
putting 2906
€@@ 2906
tour@@ 2906
novel, 2905
ston, 2905
vely 2905
Expres@@ 2905
ective 2905
newspapers 2905
convinced 2905
distinctive 2905
ing." 2905
Hob@@ 2904
Syrian 2904
arrangement 2904
1964, 2904
ter's 2904
Bristol 2904
1979. 2904
Attorney 2904
Urban 2903
hence 2903
Les@@ 2902
"Di@@ 2902
actively 2901
March, 2901
augh@@ 2901
CA 2901
Whe@@ 2901
mond 2900
sel 2899
suff@@ 2899
Professional 2899
D) 2899
1921 2898
DV@@ 2897
populations 2897
advice 2897
Serie 2896
point@@ 2896
increases 2895
bility 2895
tes 2895
inary 2895
benefits 2894
Birmingham 2894
patri@@ 2893
Scotland. 2893
Wright 2893
Canal 2893
lav@@ 2893
Schools 2892
enk@@ 2892
Oliver 2891
tives 2891
clin@@ 2891
L) 2890
beach 2890
release. 2890
action. 2890
father@@ 2889
"Con@@ 2889
Byzantine 2889
och 2889
consul@@ 2888
Hill, 2888
ena, 2888
track, 2887
horses 2887
Jerry 2887
ing; 2887
bab@@ 2886
je 2886
affairs 2886
diver@@ 2885
Sport@@ 2885
scen@@ 2885
theat@@ 2884
itor 2884
appro@@ 2884
battalion 2883
real@@ 2883
right@@ 2882
1990s. 2882
Theater 2882
akh@@ 2882
women, 2882
bay 2882
employ@@ 2881
public. 2880
comment@@ 2880
Sierra 2880
Bernard 2880
ov, 2880
Academ@@ 2880
Phil 2879
ability. 2879
zer@@ 2879
py@@ 2879
os" 2878
father. 2878
Racing 2878
Abu 2878
Cross@@ 2877
Sound 2877
Kab@@ 2877
rug@@ 2877
sell@@ 2876
therap@@ 2876
owns 2876
recruited 2876
polic@@ 2876
haw@@ 2875
expert 2875
serv@@ 2874
illing 2874
lined 2874
characteristics 2873
ore, 2873
Top@@ 2872
groups. 2872
ambi@@ 2872
tha 2871
measured 2871
accid@@ 2871
revenue 2871
frag@@ 2870
head, 2870
accoun@@ 2870
vac@@ 2869
opportunities 2869
s/@@ 2869
mist@@ 2868
Chand@@ 2868
am" 2868
challeng@@ 2868
scholarship 2867
е@@ 2866
communist 2866
looks 2866
ordinary 2866
incl@@ 2866
irs 2866
ory, 2866
diff@@ 2865
aching 2865
meetings 2864
final, 2864
Log@@ 2864
err@@ 2863
consist 2863
Austin 2863
Greece 2862
proc@@ 2862
Kas@@ 2862
Championships. 2862
om. 2862
Florida. 2861
Brow@@ 2861
Awards. 2860
Protestant 2860
effec@@ 2860
coast@@ 2860
mode 2859
administered 2859
horror 2859
emphasis 2859
sav@@ 2859
Inc@@ 2858
symbol@@ 2858
"in 2858
eyes 2857
lan 2857
apart 2857
characteristic 2857
ine's 2856
suicide 2855
stop@@ 2855
simul@@ 2855
aware 2855
songs, 2854
ach. 2854
round@@ 2854
success, 2854
san@@ 2854
eless 2853
Week@@ 2853
UN 2853
conservation 2853
su 2852
train@@ 2851
affect 2851
deep@@ 2851
Sad@@ 2849
Carol@@ 2849
oriented 2849
han@@ 2848
writer, 2848
industri@@ 2848
systems, 2847
omin@@ 2847
stem@@ 2847
dramatic 2847
preparation 2846
Kit@@ 2846
fresh 2843
census. 2843
circu@@ 2843
Type 2843
ward, 2842
struc@@ 2842
ation's 2841
ed". 2841
hill@@ 2841
iness 2840
power, 2839
gs 2839
th's 2839
decide 2838
lyric@@ 2838
1960, 2838
DO@@ 2837
portrait 2837
hunting 2837
neutr@@ 2837
Sain@@ 2836
ar-@@ 2836
prec@@ 2836
playoff 2835
tionally 2835
1966, 2835
ees 2834
berg@@ 2834
structural 2834
unless 2833
Lud@@ 2833
governments 2833
"All 2833
regard 2833
scienti@@ 2833
itted 2832
Rep@@ 2832
Head@@ 2831
Herbert 2831
revol@@ 2830
Caribbean 2830
long-term 2830
ler. 2830
st-@@ 2829
carries 2829
flights 2828
graph 2828
Organization 2828
exactly 2827
hospit@@ 2827
uk 2827
predominantly 2827
stic@@ 2826
Cemetery 2826
uncle 2826
double-@@ 2826
ais 2826
Kun@@ 2825
1925 2825
or" 2823
counties 2822
ours 2821
agon@@ 2821
thereby 2821
doors 2820
TS@@ 2820
m" 2819
Kim@@ 2819
Fron@@ 2819
trust 2818
treaty 2818
tall 2818
J.@@ 2818
fe 2817
monastery 2816
publisher 2816
spirit 2816
are, 2816
Mut@@ 2815
principle 2815
de" 2815
map@@ 2815
spr@@ 2815
1975. 2814
Bank@@ 2814
Kid@@ 2814
strip 2813
lines. 2813
Pir@@ 2813
so, 2813
canal 2812
attacking 2812
ats. 2812
li 2811
.C. 2810
ogy 2810
Barbara 2810
que, 2810
Smith, 2809
participants 2809
Back@@ 2809
jury 2808
Associ@@ 2808
Last 2808
righ@@ 2807
videos 2807
red. 2807
Transport 2807
flav@@ 2807
negotiations 2807
"n@@ 2806
dangerous 2805
Orleans 2805
tunnel 2804
IP 2804
$2@@ 2804
Program@@ 2803
12-@@ 2803
ror@@ 2803
chamber 2802
conversion 2802
player, 2802
Tod@@ 2802
elevated 2802
Had@@ 2802
centur@@ 2801
1926 2800
Turkey 2800
swimming 2800
Ran@@ 2800
hero@@ 2799
grad@@ 2798
reti@@ 2798
1939, 2797
ums 2796
(188@@ 2796
remote 2795
lak@@ 2794
discussion 2794
perceived 2792
eral 2792
Liga 2792
identical 2792
Trophy 2791
Bush 2791
Hend@@ 2791
ping 2791
Mexic@@ 2790
walking 2790
Palestinian 2790
wrote, 2789
wrestling 2789
vertical 2789
punk 2788
connections 2788
s's 2788
thre@@ 2788
wedding 2788
Adv@@ 2787
flower 2787
Arena 2786
res. 2786
caus@@ 2786
b, 2786
ships. 2785
96 2785
Terry 2784
December, 2784
agre@@ 2784
DJ 2783
shall 2783
cri@@ 2781
bot@@ 2780
76 2780
20,000 2780
Symphony 2780
Penn@@ 2780
deaths 2779
Mann@@ 2779
presid@@ 2779
site, 2779
gor@@ 2779
neighboring 2778
Interstate 2778
acres 2777
az 2777
competition, 2777
1910 2776
ards, 2776
seas@@ 2776
ways. 2776
Nevertheless, 2774
1978. 2774
ord 2774
Section 2774
"an 2773
tivity 2773
aming 2772
locomotives 2772
A's 2772
Union, 2772
incumbent 2771
1972. 2771
gang@@ 2771
rounds 2770
gymn@@ 2770
instrument 2770
Tob@@ 2770
frac@@ 2770
aun@@ 2769
off, 2769
ots, 2768
Mach@@ 2768
gathered 2768
fram@@ 2767
assets 2767
relationships 2767
Today 2767
inspec@@ 2767
charity 2766
bearing 2766
ask 2766
Communications 2766
marry 2766
ats, 2765
estr@@ 2765
grandfather 2765
seasons. 2764
periods 2764
.com 2764
LA 2764
temporarily 2764
ville. 2763
follows: 2763
wick 2763
ka, 2763
acquisition 2762
oj@@ 2761
tourist 2761
burned 2760
soft 2760
unsuccessful 2760
igh 2760
attorney 2759
"'s 2759
Orange 2759
Out 2759
fer 2759
students, 2758
Ontario, 2758
thanks 2758
gli@@ 2756
convention 2756
age@@ 2755
ister 2755
recipient 2755
udi@@ 2754
ite. 2754
scholar 2754
Emer@@ 2753
teams. 2753
Louis@@ 2753
opol@@ 2753
optim@@ 2752
oti@@ 2752
volumes 2752
party, 2752
8,@@ 2752
Wild 2752
3,000 2752
prevented 2752
wings 2751
bers 2751
Hea@@ 2751
emotional 2750
program@@ 2750
Hul@@ 2750
Gw@@ 2749
ground. 2749
explains 2748
Acc@@ 2748
structure, 2748
Tab@@ 2748
occ@@ 2747
exemp@@ 2747
outdoor 2747
Arabic 2747
install@@ 2747
receives 2747
gen 2746
week. 2746
nearest 2746
collective 2745
breeding 2745
Jacob 2745
shut 2744
L, 2744
radical 2744
itself. 2744
specific@@ 2742
Fr@@ 2742
Ron 2741
oning 2741
ements. 2741
coach. 2740
travel@@ 2740
tack@@ 2739
1916 2739
Him@@ 2738
cock@@ 2738
Hir@@ 2738
craft 2737
Fun@@ 2737
71 2736
iny 2736
extending 2736
origins 2736
Lac@@ 2735
Bil@@ 2735
us". 2735
inhabited 2735
filming 2734
child, 2733
iled 2733
T, 2733
now@@ 2733
eve 2733
Chamber 2733
voters 2732
ns, 2732
Bulgarian 2732
comprises 2731
Records, 2731
=@@ 2731
minist@@ 2731
amounts 2731
ests, 2731
faith 2731
pole 2731
Tat@@ 2730
Jord@@ 2730
Pennsylvania. 2730
asking 2728
vess@@ 2728
willing 2728
Digital 2728
re" 2727
territories 2727
Costa 2727
fundamental 2726
rows 2726
dual 2725
Orchestra 2725
stationed 2725
ete 2725
interpre@@ 2725
nutri@@ 2725
corpor@@ 2724
Ward 2724
bin 2724
Harold 2724
underwent 2724
ayan 2724
body. 2722
Boli@@ 2721
twin 2720
Wrestling 2720
archae@@ 2720
Dow@@ 2720
n" 2719
king@@ 2718
last@@ 2718
challenged 2718
Charlotte 2718
prestigious 2717
Austria 2717
Ober@@ 2716
abilities 2715
failing 2715
distinction 2715
Electric 2715
NG@@ 2714
ingham 2714
diameter 2713
Way 2713
Brazil. 2713
sters 2713
lers 2713
uel@@ 2712
authorized 2712
south, 2712
scal@@ 2710
bright 2710
Borough 2710
1915 2709
archaeological 2709
saved 2709
propos@@ 2708
comb@@ 2708
secret@@ 2708
reporting 2708
ague 2708
modern@@ 2707
cinem@@ 2707
difficul@@ 2707
gauge 2707
ony@@ 2707
Larry 2707
himself, 2706
repair 2706
Poly@@ 2706
Oli@@ 2706
hole 2706
zy@@ 2705
tenth 2705
Alber@@ 2704
monthly 2704
3D 2704
structure. 2704
eous 2704
Southeast 2704
tures, 2703
colony 2703
delayed 2703
Math@@ 2702
tape 2702
references 2702
rell 2702
films. 2702
parti@@ 2701
fies 2700
Asian, 2700
WW@@ 2700
Arn@@ 2700
ove 2700
sustained 2699
long. 2699
reflect 2699
ary@@ 2699
Queen's 2699
designation 2698
Bear@@ 2698
uan 2698
Week 2698
1900 2697
fire. 2697
Lav@@ 2696
offici@@ 2695
eled 2695
holder 2695
temp@@ 2694
off. 2694
engine@@ 2694
slowly 2694
sedi@@ 2694
enabled 2693
escaped 2693
rus 2693
PO@@ 2693
Catherine 2692
Now 2692
campaign. 2691
Bod@@ 2691
AI@@ 2690
Call@@ 2690
crimin@@ 2689
tribes 2689
Neil 2689
Glasgow 2689
-like 2689
inspiration 2688
aries. 2688
Indonesian 2688
pitch@@ 2688
ative. 2687
permitted 2687
Aud@@ 2686
al", 2686
us' 2686
Kath@@ 2686
tested 2685
schem@@ 2685
Further 2685
Freedom 2685
ock, 2685
Motor@@ 2684
comprehensive 2684
winds 2684
Hat@@ 2684
alised 2684
Technical 2683
wore 2683
Night@@ 2683
vote. 2682
reflected 2682
south. 2681
boundaries 2681
Alex@@ 2681
forc@@ 2681
ace. 2680
2–1 2680
ables 2679
BS 2679
amed 2678
frequ@@ 2678
worst 2678
Spring@@ 2678
Fitz@@ 2678
artificial 2677
tank@@ 2677
pm 2677
palace 2676
Pos@@ 2676
Jay 2676
i.e. 2675
loo@@ 2675
eventual 2675
airs 2675
Spart@@ 2675
elementary 2674
Moh@@ 2674
Grammy 2674
ume 2674
community, 2674
l'@@ 2673
Leon 2673
ements, 2673
Jim@@ 2673
infrastructure 2672
culture. 2672
proper@@ 2672
Mic@@ 2672
writer. 2672
alternate 2671
ica, 2671
restric@@ 2671
Iraqi 2671
ai. 2670
track@@ 2670
ways, 2670
faces 2669
worn 2669
Dr 2668
utt@@ 2668
championships 2668
-and-@@ 2668
plann@@ 2668
rivers 2668
EU 2667
1981. 2667
head. 2667
hidden 2667
lines, 2667
show's 2666
cancelled 2666
Harris@@ 2666
Australi@@ 2666
FL 2666
UK, 2665
Mary@@ 2665
females, 2665
evolution 2665
championship. 2664
magnetic 2664
Bay, 2663
issues. 2663
"Un@@ 2662
x" 2662
Rangers 2662
year-@@ 2662
ull 2661
(9@@ 2660
explain 2660
78 2660
Jon 2660
evid@@ 2659
Hebrew 2658
perform@@ 2658
1.5 2657
Vienna 2656
Carolina. 2656
Fish@@ 2655
1950s, 2655
Action 2655
sions, 2654
teen 2654
fts 2654
iti 2654
"(@@ 2654
enzyme 2653
so. 2653
Secret@@ 2653
arch 2653
interpretation 2652
applic@@ 2651
tian 2651
Jazz 2651
episode, 2651
documented 2649
suppli@@ 2648
ace, 2648
wasn't 2648
Richmond 2647
initiative 2647
Book@@ 2647
Temp@@ 2647
Jav@@ 2646
oci@@ 2646
elder 2646
Lord@@ 2646
promo@@ 2645
eter@@ 2645
relating 2645
Develop@@ 2645
bio@@ 2644
III@@ 2644
Bobby 2644
1974. 2644
Cov@@ 2644
Univers@@ 2644
visits 2643
doll@@ 2643
dubbed 2643
End@@ 2643
Dy@@ 2643
1,0@@ 2643
thirty 2643
released. 2643
BC. 2643
Round 2643
increas@@ 2642
fran@@ 2642
88 2642
favorite 2642
E, 2642
industry, 2642
removal 2642
historically 2641
Beginning 2641
Armed 2641
at's 2641
tz@@ 2640
Video 2640
stage, 2640
version, 2639
change. 2639
channels 2639
cutting 2639
Finally, 2639
vs. 2638
grandson 2638
releasing 2638
brig@@ 2638
ine" 2638
waiting 2638
doub@@ 2638
aj 2638
silent 2637
erb@@ 2637
Knight 2637
pir@@ 2636
Award. 2636
binding 2636
right, 2636
lo 2635
space. 2635
Commons 2635
veteran 2634
ed." 2634
ordained 2634
clear@@ 2633
Cord@@ 2633
shoot 2632
bric@@ 2631
Steven 2631
20. 2631
releases 2630
uli@@ 2630
rib@@ 2630
State, 2630
ani, 2628
familiar 2628
business@@ 2627
exposure 2627
recalled 2627
brigade 2626
re-elected 2626
ro. 2626
construct 2626
Food 2625
tos@@ 2625
traveling 2625
focusing 2625
apartment 2625
prim@@ 2625
ation) 2624
surname 2624
81 2624
ail, 2624
fo@@ 2624
gas@@ 2623
infec@@ 2623
osp@@ 2623
commission@@ 2622
manufacturer 2622
omet@@ 2622
customers 2622
1962, 2621
jobs 2621
functional 2621
pet 2620
Tha@@ 2620
agree 2620
kil@@ 2620
Gat@@ 2620
cooperation 2620
ots. 2619
1946, 2619
Mam@@ 2618
1970. 2618
million, 2618
movement, 2617
death@@ 2617
el" 2616
rough@@ 2616
1963, 2616
74 2616
implementation 2616
Ed 2616
denomin@@ 2615
metropolitan 2615
ix@@ 2614
society. 2614
Joint 2614
ler's 2614
,000@@ 2613
eck 2613
delivery 2611
extends 2611
Buc@@ 2611
bet 2610
Beng@@ 2610
1947, 2610
chlor@@ 2610
Engine@@ 2610
mou@@ 2610
gy@@ 2609
Tribun@@ 2609
method@@ 2609
Max@@ 2609
Kum@@ 2609
Chal@@ 2609
mechanism 2609
sentence 2608
injuries 2608
serial 2608
TO@@ 2608
xed 2608
UK. 2607
lor@@ 2607
dom 2607
stric@@ 2607
1976. 2607
Haz@@ 2606
"one 2606
reduc@@ 2606
1908 2605
(187@@ 2605
maintaining 2605
Stock@@ 2605
differenti@@ 2605
CM@@ 2605
role. 2605
strict 2604
he's 2604
provinces 2603
surgery 2603
uded 2603
ft. 2603
Hoo@@ 2602
Nord@@ 2602
Rig@@ 2602
bic@@ 2602
ians 2601
RI@@ 2601
dean 2600
Keith 2600
valuable 2600
pent@@ 2600
priv@@ 2600
intellectual 2599
dimensional 2598
slave 2597
nucle@@ 2597
Motor 2597
Boy 2597
texts 2597
programm@@ 2597
down, 2596
child@@ 2596
event@@ 2596
Loc@@ 2596
accommodate 2595
Resid@@ 2595
Mou@@ 2595
Faculty 2595
ms. 2594
who, 2594
1968. 2594
prefer@@ 2594
Standard 2594
eable 2594
husband, 2593
bond@@ 2593
Dance 2593
expect@@ 2593
n-@@ 2592
record, 2592
15.@@ 2592
teach 2591
director, 2591
Archi@@ 2591
Divisi@@ 2591
u's 2591
seven@@ 2591
village, 2590
Hans 2590
Mr 2590
sessions 2590
Athletics 2590
recover@@ 2589
Bible 2588
Democrat 2588
's. 2588
("S@@ 2588
NY 2587
sculpture 2587
fairly 2587
navig@@ 2587
cles 2587
Starting 2586
Eddie 2586
1971. 2585
Econom@@ 2585
ze@@ 2585
Open@@ 2585
evol@@ 2585
wer@@ 2584
92 2583
decor@@ 2583
DS@@ 2583
Sag@@ 2583
loaded 2582
undergraduate 2582
cash 2582
Methodist 2582
esc@@ 2581
Schol@@ 2581
doctor 2581
slav@@ 2581
alpha@@ 2581
dead@@ 2581
ession@@ 2579
("The 2579
weak 2579
Ice 2578
argues 2577
character, 2577
conven@@ 2577
alize 2577
metre 2577
modi@@ 2577
right-@@ 2577
Ken 2577
aircraft. 2576
thesis 2576
generate 2575
Mang@@ 2575
F, 2575
(19@@ 2575
ling, 2575
Fut@@ 2575
phrase 2573
Bang@@ 2573
mm. 2573
Gill@@ 2573
attack. 2573
Yale 2572
theatrical 2572
Marsh@@ 2572
Harrison 2572
udes 2571
discuss 2570
Mess@@ 2570
Mitchell 2570
defend@@ 2570
1948, 2570
a’s 2570
research@@ 2569
mature 2569
rav@@ 2568
tar@@ 2568
rev@@ 2568
Leo 2567
ogue 2567
norm@@ 2567
Conserv@@ 2567
Students 2567
composi@@ 2567
induc@@ 2567
Suz@@ 2566
Speci@@ 2566
Fleet 2566
Psych@@ 2566
resignation 2566
ford. 2564
nom@@ 2564
sible 2562
state's 2562
Conn@@ 2562
meth@@ 2561
operator 2560
exhibit 2560
superior 2560
Brah@@ 2559
1973. 2559
Ess@@ 2559
ains 2559
ophy@@ 2558
aus@@ 2558
grass 2558
tionary 2558
ories. 2558
1969. 2558
adj@@ 2557
erson 2557
Ph.D. 2557
catch@@ 2556
feeling 2556
Found@@ 2556
1960s. 2555
contin@@ 2555
neighbouring 2555
care@@ 2555
dre@@ 2555
enberg 2555
Evans 2554
e/@@ 2554
150@@ 2554
Dennis 2553
trail 2553
ae, 2553
T) 2553
crown 2553
DS 2552
Connecticut 2552
month, 2552
variant 2552
eri 2552
prepare 2552
grow@@ 2552
н@@ 2552
oppon@@ 2551
abb@@ 2551
spor@@ 2551
to. 2551
ps. 2550
lip@@ 2550
revised 2550
battery 2549
sending 2549
sions. 2549
develop@@ 2549
tures. 2549
networks 2549
virtual 2549
Reser@@ 2548
Rat@@ 2548
ailed 2548
E-@@ 2548
guide 2548
beaten 2548
bod@@ 2547
17.@@ 2547
electricity 2547
orn 2547
chro@@ 2546
Gab@@ 2546
benef@@ 2546
affili@@ 2545
east. 2545
correct 2544
icks 2544
Sean 2544
Medicine 2544
Gregory 2543
jurisdiction 2543
invented 2543
Lloyd 2543
nel 2543
chief@@ 2543
ization 2542
extinct 2542
Jefferson 2542
charts 2542
requiring 2542
1918, 2542
function@@ 2542
week, 2542
abuse 2542
temperatures 2541
tributary 2541
lift 2541
Branch 2540
bonus 2540
win. 2540
edy 2540
Express 2539
golf 2539
self 2538
Ancient 2538
ne's 2538
Brisbane 2537
headquartered 2537
confused 2537
Commission@@ 2537
coat 2537
bury, 2536
Adelaide 2536
buildings, 2536
legally 2535
84 2535
investig@@ 2535
universal 2535
ge. 2534
ested 2534
Anglican 2534
Alli@@ 2534
plastic 2534
isc@@ 2533
Mind@@ 2533
adi 2533
operations. 2533
kingdom 2532
164@@ 2532
process, 2531
disrup@@ 2531
said: 2531
molecular 2531
r, 2531
tut@@ 2531
83 2530
photographs 2529
cloth@@ 2529
ogu@@ 2528
gang 2528
Victor@@ 2528
Cong@@ 2527
remain@@ 2527
1911 2527
zer 2527
limits 2527
settlements 2526
Hungary 2526
doubles 2526
Dani@@ 2526
retain 2525
Hudson 2525
unt 2524
iner 2524
15. 2524
semin@@ 2524
Helen 2524
RB@@ 2524
Robin 2523
Lew@@ 2523
ο@@ 2523
dissolved 2523
xi@@ 2523
ese. 2523
liter@@ 2523
agan 2523
addressed 2522
Contemporary 2522
Plan@@ 2521
Members 2520
Nel@@ 2520
mal 2520
bridg@@ 2519
Administr@@ 2519
ster, 2519
arity 2518
firing 2518
eph@@ 2518
Empire. 2518
though@@ 2518
Control 2517
Hag@@ 2517
Utah 2517
of-@@ 2517
1913 2517
fewer 2517
yd@@ 2517
Awards, 2517
cular 2517
margin 2517
Manuel 2516
appear@@ 2516
1–0 2516
particular, 2516
ories, 2515
Nak@@ 2515
Denmark 2515
thinking 2515
culture, 2515
hour@@ 2514
remembered 2514
ker, 2514
lac@@ 2514
ability, 2513
search@@ 2513
pron@@ 2512
reporter 2512
zon 2511
lead@@ 2511
backing 2511
crash 2511
centr@@ 2511
Hind@@ 2510
stage. 2510
Vietnamese 2510
Revolutionary 2510
87 2509
sac@@ 2509
demanded 2509
tain 2509
Pedro 2509
printing 2508
pati@@ 2508
Group. 2508
Aj@@ 2508
acoustic 2508
matters 2507
Studio 2507
1977. 2507
98 2506
liqu@@ 2506
Leeds 2506
Society. 2506
alism, 2506
illustrated 2506
protests 2505
ral 2505
aro 2505
km) 2505
allied 2505
nav@@ 2505
convic@@ 2504
UK@@ 2504
Cum@@ 2503
ago. 2503
Ralph 2503
studi@@ 2503
Tac@@ 2502
rab@@ 2502
25.@@ 2502
styles 2501
carrier 2501
point. 2501
Petro@@ 2500
ples, 2500
bachelor's 2499
bach 2499
proof 2499
sample 2499
governing 2498
businessman 2498
Apple 2498
jec@@ 2498
Instead, 2498
Argentina 2497
overseas 2497
subsidi@@ 2497
(186@@ 2497
Sty@@ 2496
travels 2496
s’ 2496
profession@@ 2496
"Mar@@ 2496
il's 2496
R, 2495
wrest@@ 2495
Zealand. 2495
Movement 2494
Gothic 2494
population, 2494
viewers 2493
er), 2493
select 2493
Vent@@ 2492
Zam@@ 2492
PS 2491
dish 2491
car. 2491
"Best 2491
cons@@ 2491
ma, 2490
10–@@ 2490
Here 2490
Turner 2490
pav@@ 2489
martial 2489
cemetery 2489
imprisoned 2488
opponents 2488
shifted 2488
consider@@ 2488
ty-@@ 2487
exercise 2487
disbanded 2487
words, 2487
Secondary 2487
Together 2487
allegedly 2486
regime 2486
Muslims 2486
discover@@ 2486
chor@@ 2486
fee 2485
accurate 2485
"d@@ 2485
SC 2484
pioneer 2484
pref@@ 2484
difficulty 2484
Greg@@ 2483
Dum@@ 2483
patrol 2483
es's 2482
contribute 2482
City@@ 2482
R.@@ 2481
se" 2480
athletic 2480
dealing 2480
Century 2480
eration 2480
Every 2480
ographer 2479
mistak@@ 2479
activities. 2479
Inv@@ 2478
manages 2478
design. 2478
(nee 2477
station@@ 2477
1" 2477
jack@@ 2476
action, 2476
voiced 2475
song. 2475
retiring 2475
"f@@ 2475
succ@@ 2475
southeastern 2475
Trump 2475
constitution 2474
ino, 2474
73 2474
Pep@@ 2474
manuscript 2473
decisions 2473
82 2473
chec@@ 2473
talks 2473
roman@@ 2473
Poll@@ 2473
exc@@ 2473
debt 2472
Dig@@ 2472
edly 2472
bling 2472
mic 2472
Clinton 2471
grey 2471
engage 2471
legislat@@ 2471
productions 2471
gap 2470
%), 2470
mass@@ 2470
Thai 2469
"Par@@ 2469
ano@@ 2469
ocy@@ 2468
sat@@ 2467
manag@@ 2467
aining 2467
Ara@@ 2466
Journal 2466
fallen 2466
elections. 2466
non-profit 2466
Sky 2466
upcoming 2466
Award@@ 2466
relation@@ 2465
colum@@ 2465
ues 2465
general, 2464
aja 2464
Dick 2463
elect 2463
descendants 2463
no-@@ 2463
elections, 2463
bie 2463
Challenge 2463
14. 2462
schedule 2462
shipping 2462
PE@@ 2462
sever@@ 2462
seasons, 2462
Satur@@ 2462
drivers 2462
tone 2462
qualification 2462
Lau@@ 2461
(6@@ 2461
nickname 2461
progressive 2461
revolutionary 2460
Mend@@ 2460
Craig 2460
breaks 2460
business, 2460
diplom@@ 2459
Daw@@ 2459
rap 2458
survive 2458
partners 2458
ore. 2458
quarterback 2458
northeastern 2457
merely 2457
princip@@ 2457
uniform 2456
thirteen 2456
pitch 2456
itor@@ 2456
independ@@ 2455
hall@@ 2455
lau@@ 2455
ter" 2454
1961, 2454
1944. 2454
prob@@ 2454
gran@@ 2454
small, 2453
stal@@ 2453
appropri@@ 2453
announc@@ 2453
Jacques 2453
ze, 2453
wealth 2452
ise. 2452
finance 2451
t", 2451
compound 2451
pian@@ 2451
ature 2450
drugs 2450
editorial 2450
ids, 2450
ek, 2449
ania, 2449
ble, 2449
satis@@ 2449
judges 2448
onau@@ 2448
mur@@ 2447
Democr@@ 2447
Provincial 2447
heading 2446
izing 2446
Lun@@ 2446
Broad@@ 2446
astr@@ 2446
case. 2446
isation 2445
Independ@@ 2445
Scotland, 2445
movies 2445
V-@@ 2444
comprising 2444
° 2444
interviews 2443
entran@@ 2443
"Mon@@ 2443
Mali@@ 2443
enlisted 2443
volum@@ 2442
pursued 2442
rolling 2442
1967. 2442
concentrated 2442
Dod@@ 2441
funeral 2441
kow@@ 2441
human@@ 2440
track. 2440
sounds 2440
Bes@@ 2440
repeatedly 2440
planted 2440
Batt@@ 2440
ex 2439
iding 2439
golden 2439
Jr., 2439
Saf@@ 2438
quoted 2438
topped 2437
Kom@@ 2437
cattle 2437
murdered 2437
1956, 2437
body, 2436
sig@@ 2436
angu@@ 2436
demands 2436
LP 2436
Eg@@ 2436
16. 2436
is", 2436
ser 2435
1950, 2435
Om@@ 2435
stroke 2435
ician 2435
ble. 2435
ecting 2435
competitions 2435
itan 2434
Carolina, 2434
McK@@ 2434
altitude 2433
Club. 2433
Computer 2433
Protection 2433
prop@@ 2432
occur@@ 2432
arrest@@ 2431
ocr@@ 2430
activist 2430
Hem@@ 2430
ala, 2430
Representative 2430
Be 2430
enable 2430
arded 2429
maintains 2429
enni@@ 2429
-year 2428
founders 2427
Center. 2427
labor@@ 2427
NA 2426
in' 2426
preserve 2426
supervis@@ 2426
other, 2426
part, 2426
tournament, 2426
Georg@@ 2425
e") 2425
adults 2425
sister, 2425
Vincent 2425
parking 2425
order. 2425
ar" 2425
Aviation 2424
mixture 2424
ice. 2424
pep@@ 2424
ic" 2423
Street@@ 2423
on; 2423
radar 2423
imposed 2423
Ye@@ 2422
Brooklyn 2422
Ohio, 2422
enne 2422
waste 2422
Oscar 2422
sail@@ 2421
Societ@@ 2421
• 2421
97 2421
pose 2421
Wang 2421
Ret@@ 2421
ago, 2421
states, 2420
ase. 2419
to: 2419
Vancouver 2419
quantum 2419
Rail 2418
Ple@@ 2418
awareness 2418
Rome, 2418
profess@@ 2417
Pakistani 2417
posed 2417
budg@@ 2417
Model 2417
bo 2417
$5@@ 2416
Unit 2415
Parker 2415
seized 2415
intense 2415
Baker 2415
79 2415
considering 2415
editions 2415
iter@@ 2415
athletes 2414
agencies 2414
suspected 2413
50% 2413
Place 2413
hear 2413
ography, 2412
Tigers 2412
aggreg@@ 2411
Canadi@@ 2411
R) 2411
Vid@@ 2411
holders 2411
emperor 2411
south-east 2410
establish@@ 2410
prison@@ 2410
olo 2410
slaves 2410
teams, 2409
historians 2409
amin@@ 2409
winn@@ 2409
ly-@@ 2408
Life@@ 2408
Republic. 2408
prices 2408
great-@@ 2408
Albums 2408
Financial 2408
limit@@ 2407
bid@@ 2407
anic 2407
Albanian 2407
figh@@ 2406
bear@@ 2405
Susan 2405
anian 2405
summit 2405
usage 2405
internationally 2405
dres@@ 2405
concl@@ 2405
Old@@ 2404
personality 2404
lem 2404
influences 2403
Thus 2403
Primary 2403
IG@@ 2402
sigh@@ 2402
ingu@@ 2402
tool 2402
ashing 2401
tub@@ 2401
campaigns 2401
3/@@ 2401
platforms 2401
root 2401
20.@@ 2401
PlayStation 2400
share@@ 2400
brow@@ 2399
partn@@ 2399
Conservation 2399
Georgian 2398
Collec@@ 2398
H.@@ 2398
bits 2398
victory. 2398
patterns 2398
siege 2398
dic 2398
songs. 2397
freight 2397
Games. 2397
IV@@ 2397
heim 2397
theories 2397
seg@@ 2397
Anti-@@ 2397
hak@@ 2397
1965. 2396
vocalist 2396
secre@@ 2396
kilometers 2396
aims 2395
colors 2395
realized 2394
ret 2394
severely 2394
lights 2394
alizing 2394
tum@@ 2394
1906 2393
Sony 2392
narrow@@ 2392
Roberts 2392
Shah 2392
leav@@ 2391
93 2391
alleg@@ 2390
assaul@@ 2390
Society, 2390
meet@@ 2390
Eth@@ 2389
transformed 2389
Ivan 2389
agon 2389
itors 2389
pow@@ 2389
built. 2389
planet 2388
interesting 2388
anci@@ 2388
rier 2387
Ron@@ 2387
Stanford 2386
esses 2386
assembled 2386
centered 2386
DA 2386
deal@@ 2386
celebrate 2386
ania. 2385
zy 2385
,000, 2385
beam 2384
lock@@ 2384
isa 2384
spec@@ 2383
Viol@@ 2383
as: 2383
meter 2383
ures@@ 2383
backs 2383
small@@ 2383
16.@@ 2383
Market 2382
Poland, 2382
Rober@@ 2381
Father 2381
166@@ 2381
gradu@@ 2381
weekend 2380
Bar 2380
peti@@ 2380
billi@@ 2380
victim@@ 2380
oud@@ 2380
governor@@ 2380
.D. 2380
pris@@ 2380
Ecu@@ 2379
91 2379
F.C. 2379
Spr@@ 2378
hem@@ 2378
soldier 2378
aspect 2378
deeply 2377
suggesting 2377
semi@@ 2377
tag 2377
orch@@ 2376
enforcement 2376
chronic@@ 2376
John's 2376
Farm 2376
uri@@ 2376
atri@@ 2375
Otto 2374
Rabbi 2374
abolished 2374
physics 2374
September. 2373
AD 2372
argument 2372
objective 2372
publish@@ 2372
room. 2372
cult 2372
moderate 2372
night. 2372
bases 2371
11. 2371
telephone 2371
Four@@ 2371
battles 2371
(i.e. 2371
fair@@ 2371
l-@@ 2370
Portland 2370
wait 2370
den, 2370
forth 2369
collapse 2369
le", 2369
literally 2369
interpreted 2369
1920s 2368
Morris@@ 2368
Arkansas 2368
Bangladesh 2368
here. 2367
essing 2367
ell's 2367
Celtic 2367
Classic 2366
sper@@ 2366
conjunction 2365
Former 2365
Sang@@ 2365
Mau@@ 2364
Pent@@ 2364
honored 2364
north-east 2364
Perry 2364
Newcastle 2364
thin 2364
handle 2364
R&B 2363
theory, 2363
per. 2363
Pod@@ 2362
orph@@ 2362
fed 2362
buff@@ 2361
clean 2361
harv@@ 2361
payment 2360
94 2360
issu@@ 2360
trials 2360
indoor 2359
Yorkshire 2359
grades 2357
Tech 2357
artic@@ 2357
mers 2356
Wis@@ 2356
treas@@ 2356
Tommy 2355
istr@@ 2355
units. 2354
speakers 2353
edit@@ 2353
Liu 2352
tanks 2352
Marqu@@ 2352
emerging 2352
encourage 2351
understood 2351
signific@@ 2351
Buenos 2351
Cooper 2351
22@@ 2351
ancing 2351
Must@@ 2350
sky@@ 2350
patent 2350
1957, 2349
municipalities 2349
oot 2349
stones 2349
ories 2349
Britain, 2349
sized 2349
antly 2349
pure 2349
room@@ 2348
libr@@ 2348
transported 2348
EP@@ 2348
Andre 2348
chemistry 2347
alism. 2347
Sky@@ 2347
mines 2346
minutes. 2346
carved 2346
significance 2346
hoped 2346
studios 2346
appar@@ 2346
farmers 2345
Hunter 2345
cavalry 2345
Environmental 2345
Resear@@ 2345
1958, 2345
oda 2344
I.@@ 2344
fastest 2344
chann@@ 2344
—the 2343
on". 2343
locomotive 2343
consumer 2343
affiliate 2342
insur@@ 2342
bis@@ 2342
asa 2342
scre@@ 2342
thrown 2342
Rick 2342
novel@@ 2342
decisi@@ 2341
Back 2341
thri@@ 2341
revival 2341
icon 2341
creates 2339
2.5 2339
mere 2339
Gir@@ 2339
ay" 2339
win, 2339
worthy 2339
favourite 2339
Carl@@ 2339
hitting 2339
Liv@@ 2339
renewed 2339
stored 2338
9,@@ 2338
eon 2338
amp 2338
Switzerland 2338
paras@@ 2337
sight 2337
paying 2337
doctoral 2337
cens@@ 2337
matches. 2337
mathematics 2337
Collins 2336
DA@@ 2336
Michel@@ 2336
Tir@@ 2336
drag@@ 2336
writings 2335
Laz@@ 2335
idd@@ 2335
farming 2335
borne 2335
acle 2335
173@@ 2334
ash, 2334
(died 2334
sup@@ 2334
Massachusetts. 2334
agh@@ 2334
sequel 2333
judicial 2333
comedi@@ 2333
kills 2333
"You 2333
Anton@@ 2333
D'@@ 2332
Illinois, 2332
Ford@@ 2332
installation 2331
stadi@@ 2331
profit 2331
eful 2330
Bob@@ 2330
occasion 2330
marsh@@ 2330
restor@@ 2330
Californi@@ 2329
Wall 2329
instead. 2329
ump 2328
attack@@ 2328
epid@@ 2327
89 2327
kingdom@@ 2327
virtually 2326
Johann 2326
reverse 2326
if@@ 2325
raid 2325
enci@@ 2325
Kings 2324
potentially 2324
Cook 2324
purpos@@ 2324
larg@@ 2324
Jerusalem 2324
ry's 2324
Anglo-@@ 2323
"It's 2323
respon@@ 2323
dal@@ 2323
assists 2323
embarked 2323
warning 2322
bears 2322
pitched 2322
posts 2321
discover 2321
squar@@ 2321
word@@ 2321
thick 2320
$4@@ 2320
religi@@ 2320
aks 2320
aid@@ 2320
closest 2320
updated 2319
presents 2319
illy 2319
August. 2318
ed", 2318
fli@@ 2318
staged 2318
count@@ 2318
available. 2318
Act, 2318
batting 2318
was@@ 2317
Madison 2317
wr@@ 2317
F.@@ 2317
Hung@@ 2317
(c@@ 2317
gift 2317
achiev@@ 2316
marking 2315
1955, 2314
EC@@ 2314
ache 2314
drinking 2314
phen@@ 2314
Nas@@ 2314
sand 2313
rod@@ 2313
rout@@ 2313
1959, 2312
ence" 2312
Manag@@ 2312
apped 2312
18.@@ 2311
exten@@ 2311
18. 2310
south-west 2310
Greg 2309
los 2309
premi@@ 2309
Tou@@ 2309
"un@@ 2308
stops 2308
vid@@ 2308
circle 2308
warm 2307
cataly@@ 2307
evil 2307
noting 2307
Stuart 2307
expanding 2306
1949, 2306
rocks 2306
Gang@@ 2306
13. 2306
Olympics, 2305
scores 2305
orchestra 2305
Songs 2304
date. 2304
Hab@@ 2304
act. 2304
codice_@@ 2304
collect 2304
sons, 2303
Rhode 2303
throw 2302
cap 2302
er: 2302
sta 2302
sugar 2302
usive 2301
shorter 2301
ances. 2301
III, 2301
Ambassador 2301
gallery 2300
Territ@@ 2300
Andre@@ 2299
Pain@@ 2299
oured 2299
Delta 2299
adap@@ 2299
1964. 2298
baby 2298
”, 2298
Pan 2297
footage 2297
"Bl@@ 2297
Continental 2297
XX@@ 2296
tion: 2296
fantasy 2296
р@@ 2295
Stev@@ 2295
te, 2295
Ve@@ 2295
proceeded 2295
Guang@@ 2295
Asia, 2294
implic@@ 2294
ater@@ 2294
date, 2294
fighters 2294
fourteen 2294
ight, 2293
simultaneously 2293
Big@@ 2292
change, 2292
Using 2292
ther. 2291
zen@@ 2291
hosting 2291
N-@@ 2291
Rand@@ 2290
Friday 2290
Portugal 2290
bell@@ 2290
recognize 2290
gastropod 2289
dial@@ 2289
quick@@ 2289
union@@ 2289
cham@@ 2288
shut@@ 2288
traditions 2287
lasting 2287
impressed 2286
ating, 2286
Abbey 2286
aic 2285
Byr@@ 2285
throne 2284
Repor@@ 2284
bombing 2284
legend 2284
acher 2283
ness. 2283
sing. 2283
happy 2282
Fund 2282
year's 2281
grap@@ 2281
Democrats 2281
er/@@ 2280
impressive 2280
ak. 2280
Limited 2280
elite 2280
1909 2279
broadcasts 2279
dies 2279
ea, 2279
"c@@ 2278
Award, 2277
indi@@ 2277
vig@@ 2277
anning 2277
categ@@ 2277
165@@ 2276
meas@@ 2276
eva 2276
Dream@@ 2276
Ut@@ 2275
eat 2275
occasional 2275
cylinder 2275
goals. 2274
eu 2274
motiv@@ 2274
ny@@ 2273
Burg@@ 2273
targ@@ 2273
an: 2273
clothing 2273
e' 2273
weapon 2273
French, 2272
"Li@@ 2272
oga 2272
improving 2271
finals. 2271
kel@@ 2271
ists. 2271
Og@@ 2271
tery 2271
specified 2271
clock 2271
Patri@@ 2270
ho 2270
narrative 2270
MC@@ 2270
Museum, 2270
ori 2269
dram@@ 2268
itary 2268
ros 2268
reviewed 2268
conducting 2267
discovers 2266
expos@@ 2266
1907 2266
me. 2266
restore 2265
ray@@ 2265
brings 2265
Industry 2265
ruler 2265
Islam 2264
1953, 2264
ambassador 2264
photography 2264
altered 2264
ideal 2264
contract. 2263
second@@ 2263
Aw@@ 2263
Circuit 2262
Pearl 2262
tension 2262
variation 2262
intern@@ 2262
landscap@@ 2261
IF@@ 2261
pod@@ 2260
Cardinal 2260
Asia. 2260
1917, 2260
town's 2260
ps@@ 2260
obi@@ 2260
wing@@ 2260
conditions. 2260
ß@@ 2259
joins 2259
answer 2259
ticket 2258
1905 2258
Han 2257
len@@ 2257
inqu@@ 2257
ances, 2256
nicknamed 2256
Milan 2256
LS@@ 2256
afterwards 2256
rejec@@ 2256
Swe@@ 2256
smo@@ 2256
February, 2256
Concer@@ 2255
1966. 2255
feder@@ 2255
ation; 2255
ridg@@ 2255
daughters 2255
Francois 2255
nephew 2254
Mold@@ 2254
crimes 2254
ent-@@ 2253
Championships, 2253
signature 2253
Eugene 2253
Chronic@@ 2253
Taiwan 2253
island. 2253
Cup@@ 2252
esting 2252
encountered 2252
internet 2252
psychological 2252
fif@@ 2251
glob@@ 2251
ars, 2251
Maur@@ 2251
Rob 2251
techn@@ 2250
distinc@@ 2250
enda 2249
matic 2249
Heart 2249
spell 2249
Google 2249
ah. 2248
guests 2248
experim@@ 2248
Ast@@ 2248
Production 2248
bloc@@ 2248
H-@@ 2248
berg. 2248
proteins 2248
similarly 2247
African-American 2247
cost@@ 2246
L.@@ 2246
(US@@ 2246
accept@@ 2246
al". 2245
democratic 2245
deliver 2245
prototype 2244
act, 2244
ques 2244
investigate 2243
Gos@@ 2243
comparison 2243
soul 2243
Gilbert 2242
aviation 2242
beauty 2242
privately 2242
dil@@ 2241
absorbed 2241
exit 2241
approaches 2241
formula 2241
targeted 2241
mentions 2240
un, 2239
coup 2239
Policy 2239
e," 2238
Notable 2238
antic 2237
Belgium 2237
earth 2237
Vladimir 2237
by. 2236
had@@ 2236
purposes 2236
per-@@ 2236
ska 2235
format. 2235
1938, 2235
Fall@@ 2235
bot 2234
Buffalo 2234
ta, 2234
17. 2234
buses 2233
Masters 2233
Oce@@ 2233
ix 2233
ano, 2232
75@@ 2232
alities 2231
copper 2231
died. 2231
liked 2230
fat@@ 2230
Club@@ 2230
Phot@@ 2230
jump 2229
ney's 2229
parks 2228
belt 2228
Foot@@ 2228
eing 2228
acknowledged 2228
faster 2228
Amaz@@ 2228
cant@@ 2228
ois 2228
immigration 2228
Flight 2228
commanding 2227
piec@@ 2227
HMS 2227
Municipality 2227
at" 2227
Saints 2227
improvements 2226
.. 2226
instrument@@ 2226
stream@@ 2225
tram@@ 2225
control. 2225
Tasman@@ 2225
Zi@@ 2225
network. 2224
ashed 2224
permanently 2224
23.@@ 2223
impres@@ 2223
mother@@ 2223
upgraded 2222
Cir@@ 2221
Baron@@ 2221
Read@@ 2221
rh@@ 2221
Cost@@ 2221
22.@@ 2220
ich, 2220
recep@@ 2220
attendance 2220
transit 2219
Cincinnati 2219
ski, 2219
Base 2219
Danny 2219
pound@@ 2218
entertain@@ 2218
contra@@ 2218
s," 2217
Ukraine 2217
division. 2217
enter@@ 2217
manufactur@@ 2217
alcohol 2217
enth@@ 2217
Besides 2216
difficulties 2216
prompted 2216
pseud@@ 2216
Private 2216
ority 2216
activi@@ 2215
(c. 2215
buildings. 2215
Culture 2215
impossible 2215
absolute 2215
namely 2215
AG@@ 2215
Salt 2215
Brew@@ 2214
Sultan 2214
Mill 2213
"If 2213
TV, 2213
edia 2212
Maxim@@ 2212
ship's 2212
villag@@ 2212
IS 2212
no. 2212
thro@@ 2211
distric@@ 2211
1954, 2211
Offic@@ 2210
diesel 2210
Chap@@ 2210
organization. 2209
TC@@ 2209
collegiate 2208
Intelligence 2208
else 2208
Joan 2208
2–0 2207
All-Star 2207
eggs 2207
Boston, 2207
wet@@ 2207
puts 2206
confid@@ 2205
canc@@ 2205
1920, 2205
reveal 2205
personally 2205
Ce@@ 2205
Zone 2204
river. 2204
alls 2204
mes@@ 2204
October. 2204
handling 2204
-in-@@ 2203
Spi@@ 2203
Rev. 2203
arrives 2203
stress 2203
protec@@ 2203
solely 2202
July. 2202
legs 2202
programs. 2202
tour, 2202
perpet@@ 2201
cow@@ 2201
labour 2201
lord 2201
YouTube 2200
Zealand, 2200
practiced 2199
Projec@@ 2199
roof@@ 2199
northwestern 2198
class. 2198
missile 2198
Mary's 2198
fabric@@ 2198
ility 2197
Gren@@ 2197
salt 2197
ashes 2196
fire, 2196
bred 2196
Beijing 2196
Gib@@ 2196
ferry 2196
Systems 2195
varying 2195
Fourth 2194
Delhi 2194
Northwest 2193
ider 2193
af 2193
Luke 2193
brigh@@ 2193
00-@@ 2193
Mario 2192
pling 2192
Lot@@ 2192
experiments 2191
airline 2191
sh 2191
emerg@@ 2191
Cold 2190
commitment 2190
independently 2189
Outstanding 2189
(185@@ 2189
Armen@@ 2189
Bush@@ 2189
party's 2189
cuts 2188
finish@@ 2188
Vice-@@ 2188
ente 2188
1960. 2187
Urugu@@ 2187
spaces 2187
acks 2186
challenges 2185
chest@@ 2185
Dark 2185
favorable 2185
travelling 2185
hills 2185
order, 2185
festivals 2184
criticised 2184
dress 2184
Nin@@ 2184
thir@@ 2184
Ted 2183
promotional 2183
struggled 2183
impro@@ 2183
pages 2182
fai@@ 2182
preliminary 2181
Higher 2181
Wilhelm 2181
Hampshire 2181
road, 2181
Parliamentary 2181
regulations 2181
udd@@ 2180
Leonard 2180
bond 2180
Advanced 2180
success@@ 2179
oop 2179
prosecut@@ 2179
cle 2179
construction. 2179
ve-@@ 2179
possible. 2179
doctorate 2179
beneath 2178
iner@@ 2178
after, 2178
famil@@ 2178
Villa 2178
alist@@ 2177
lands, 2177
ibn 2177
pa 2177
jour@@ 2177
Malaysia 2177
Brazil, 2176
outh 2176
inscription 2176
10% 2176
Code 2176
House. 2175
19.@@ 2175
literacy 2175
legendary 2175
scope 2175
Rhy@@ 2174
1946. 2174
Isle 2174
variable 2173
earing 2173
ember@@ 2173
govern@@ 2172
monarch@@ 2172
sit 2172
ake, 2172
input 2172
Empire, 2172
month. 2172
Chil@@ 2172
speaker 2171
RS@@ 2171
forms, 2171
age" 2171
itu@@ 2170
mother's 2170
Cuban 2169
Operations 2169
counter-@@ 2169
supporter 2168
Tang@@ 2168
jer@@ 2167
Moreover, 2167
oxid@@ 2166
holiday 2165
celebration 2165
adow@@ 2165
Distinguished 2165
NH@@ 2165
Meh@@ 2164
Cot@@ 2164
ez, 2164
lear@@ 2164
comments 2164
hours. 2164
percent@@ 2163
more, 2163
displays 2163
itself, 2163
southwestern 2163
ar's 2163
osa 2163
ities. 2163
magazine, 2163
shots 2163
Aaron 2162
Luk@@ 2162
compos@@ 2161
um-@@ 2161
ument@@ 2161
match@@ 2160
north-west 2160
jet 2159
sim@@ 2159
volunteer 2159
force. 2159
lit 2158
"s@@ 2158
tel 2158
ministry 2158
laboratory 2157
Christians 2157
innov@@ 2157
improvement 2157
ards. 2157
Boys 2157
1904 2157
Sep@@ 2157
Bry@@ 2157
determin@@ 2156
Matt@@ 2156
margin@@ 2156
books. 2155
Shep@@ 2155
State. 2154
Located 2154
ns. 2154
Derby 2153
eum 2153
interchange 2153
treat 2152
oblig@@ 2152
LA@@ 2152
eag@@ 2152
America's 2151
"Le 2150
olic 2150
defeat@@ 2150
involve 2150
1952, 2149
corp@@ 2149
intermediate 2149
wheel@@ 2149
ich. 2148
football, 2148
List@@ 2148
adventure 2148
tice 2148
Wool@@ 2147
sits 2147
Work 2147
gear@@ 2147
siz@@ 2147
otes 2147
Hos@@ 2146
Rogers 2146
government's 2146
physician 2146
Key@@ 2145
Nep@@ 2145
gin 2145
oom 2145
averaged 2145
label. 2144
quad@@ 2144
worship 2144
states. 2144
Ach@@ 2144
20-@@ 2144
ha. 2144
Ris@@ 2143
Under-@@ 2143
Colon@@ 2143
)", 2143
Ped@@ 2143
sts, 2143
Massachusetts, 2142
manif@@ 2142
car, 2142
Ster@@ 2142
flood 2142
market, 2142
21.@@ 2141
ι@@ 2141
Obama 2141
weeks. 2141
Turn@@ 2140
advocate 2140
ease 2139
drum 2139
Dob@@ 2139
explor@@ 2139
Transportation 2139
assembl@@ 2139
naming 2139
larvae 2139
chron@@ 2138
Finland 2138
Ernest 2138
Ja@@ 2138
set, 2137
liquid 2137
deals 2137
Phoenix 2137
Initially 2137
Cham@@ 2136
1951, 2136
Bav@@ 2136
Tus@@ 2136
populated 2136
ting, 2136
artist@@ 2135
Writ@@ 2135
attend@@ 2135
pairs 2135
no, 2135
Presid@@ 2134
jan 2134
Chapel 2134
Sheffield 2134
Grace 2134
settle 2134
ale@@ 2134
onder@@ 2134
9/@@ 2133
commerci@@ 2133
tribal 2133
mother. 2132
Foundation, 2132
Abraham 2132
ers) 2132
erial 2132
runn@@ 2131
ultimate 2131
integration 2131
compar@@ 2131
ity) 2131
Players 2131
const@@ 2131
Chair 2130
diocese 2130
one-year 2129
acquire 2128
performance. 2128
Palest@@ 2128
IM@@ 2128
Nan@@ 2128
seriously 2128
furn@@ 2128
Art@@ 2127
adv@@ 2127
feelings 2127
controls 2126
switch 2125
Maurice 2125
24.@@ 2125
pictures 2125
sensitive 2125
pronounced 2125
gol@@ 2124
mainland 2124
Et@@ 2124
plic@@ 2124
Angeles. 2123
Creek, 2123
shop@@ 2123
nan@@ 2123
Township, 2123
Cit@@ 2123
b. 2123
yellow@@ 2123
deck 2123
opponent 2123
there@@ 2122
dozen 2122
Bloom@@ 2122
Roosevelt 2122
Flying 2121
fted 2121
realis@@ 2120
review@@ 2120
family's 2119
33@@ 2119
kl@@ 2118
O, 2118
governmental 2118
ott 2118
logo 2118
circular 2118
wish 2118
asha 2117
stimul@@ 2117
Lions 2117
ange 2117
clay 2117
emig@@ 2116
tune 2115
congreg@@ 2115
pain 2115
targets 2115
agriculture 2115
Korea. 2115
um's 2115
temperat@@ 2114
fare 2113
Netherlands, 2113
milit@@ 2113
Mond@@ 2113
laun@@ 2113
belong 2112
ik 2112
man" 2112
framework 2112
forces, 2112
ima 2112
ennial 2112
mathematical 2112
”@@ 2111
Build@@ 2111
separation 2110
U. 2110
acclaimed 2110
corruption 2110
peoples 2109
whit@@ 2109
CF@@ 2109
topics 2109
Car 2109
discipl@@ 2108
auc@@ 2108
tours 2108
Columbia, 2108
itic 2107
uri 2107
turb@@ 2107
"Ex@@ 2107
legitimate 2107
notic@@ 2107
Raymond 2107
reception 2107
oil@@ 2106
Berlin, 2106
block@@ 2106
Parish 2106
governed 2106
suddenly 2106
penet@@ 2106
Sic@@ 2105
ie, 2105
onia, 2105
ranges 2105
pitcher 2105
USS 2104
Friend@@ 2104
excl@@ 2104
1962. 2104
width 2104
fall@@ 2103
Six@@ 2102
Georgia, 2102
Revival 2102
stepped 2102
loop 2102
Magaz@@ 2101
territorial 2101
Seg@@ 2100
berry 2100
situ@@ 2100
sal 2100
conve@@ 2100
Capit@@ 2100
Norfolk 2100
catch 2100
Say@@ 2100
Lut@@ 2099
1919, 2099
cultiv@@ 2099
Article 2099
execut@@ 2099
ir. 2099
lod@@ 2099
Jersey, 2099
autom@@ 2099
pupils 2098
publish 2098
station's 2097
glaci@@ 2097
oted 2097
BM@@ 2097
Renaissance 2096
arrive 2096
1936, 2096
ms@@ 2096
zo@@ 2096
English. 2096
god 2096
introduce 2096
kan@@ 2096
research, 2095
pilots 2095
"One 2095
"Ne@@ 2095
problems. 2094
1903 2094
Edwards 2094
ror 2093
optical 2093
sporting 2093
best@@ 2092
bridges 2092
Hughes 2092
Iv@@ 2092
Rut@@ 2092
burning 2092
handled 2091
Cameron 2091
stone, 2091
ari, 2091
ashi 2090
Lil@@ 2090
Language 2090
dun@@ 2090
propag@@ 2090
Patt@@ 2090
suspension 2090
e’s 2089
noble 2089
pale 2089
home@@ 2089
acht 2089
Gabriel 2089
fortun@@ 2089
tid@@ 2088
ule 2088
right. 2088
respond@@ 2087
Australia's 2087
1963. 2086
Pick@@ 2086
Cinem@@ 2086
compil@@ 2086
proph@@ 2085
vation 2085
it" 2084
symptoms 2084
artist, 2084
BE@@ 2084
ta. 2083
Friedrich 2083
span 2083
nes 2083
McG@@ 2083
refugees 2082
north. 2082
Sport 2082
(8@@ 2081
lingu@@ 2081
uous 2080
1914, 2080
immun@@ 2080
Laura 2079
mission. 2079
alum@@ 2078
ers", 2078
rad 2078
trag@@ 2078
roll@@ 2077
Duk@@ 2077
"b@@ 2077
EM@@ 2077
taxes 2076
truth 2076
lag@@ 2076
MTV 2076
worldwide. 2076
scientist 2075
quick 2075
Swed@@ 2075
Turkey. 2075
ays, 2074
Author@@ 2074
Mem@@ 2074
Theatre, 2074
hopes 2074
decrease 2074
ples. 2073
honors 2073
coloni@@ 2073
contribu@@ 2073
job@@ 2073
citizen 2073
advised 2073
Bent@@ 2073
interaction 2072
shr@@ 2072
hero 2072
EE@@ 2072
court. 2071
rivals 2071
preparing 2071
tube 2070
Adri@@ 2070
coins 2070
major@@ 2070
depression 2070
Syri@@ 2070
materi@@ 2069
base. 2069
depicting 2069
execution 2069
Arnold 2069
accomplished 2069
cinema 2069
Children's 2069
Rot@@ 2068
divisi@@ 2068
bal 2067
Michigan. 2067
27.@@ 2067
crowned 2067
Colin 2067
Kirk@@ 2067
Norway. 2066
torate 2066
alter@@ 2066
Israel@@ 2066
sixteen 2066
1942. 2066
Market@@ 2065
1937, 2065
rin@@ 2065
peri@@ 2065
alk@@ 2064
sailing 2064
Moor@@ 2064
1930s, 2064
"En@@ 2064
varies 2063
ic-@@ 2063
catal@@ 2063
park. 2063
uki 2062
μ@@ 2062
vet@@ 2062
atch@@ 2062
saf@@ 2062
Fried@@ 2062
space, 2061
open-@@ 2061
vas@@ 2061
restrictions 2060
yers 2060
ould 2059
Trail@@ 2059
,” 2059
over-@@ 2059
ean@@ 2059
smooth 2059
languages. 2058
Founded 2058
king. 2058
inning 2058
mutual 2058
necessarily 2058
boarding 2058
TC 2058
league. 2057
Wing 2057
hop 2057
concepts 2057
surprise 2056
Lock@@ 2056
album@@ 2055
aircraft, 2055
roster 2054
peac@@ 2054
Death 2054
w. 2054
cali@@ 2054
rog@@ 2054
mes 2054
(7@@ 2053
Aff@@ 2053
solid@@ 2053
sky, 2053
Thur@@ 2052
parad@@ 2052
director. 2052
hydrogen 2052
vo 2052
regardless 2052
files 2052
Kis@@ 2051
"h@@ 2051
thy@@ 2051
ey's 2051
'd 2051
Fall 2051
lawsuit 2051
Bomb@@ 2051
oms 2050
columns 2050
Britain. 2050
Avenue, 2050
proclaimed 2050
occurring 2050
kilometres 2050
Islands, 2049
Let@@ 2049
System@@ 2049
fifty 2048
Id@@ 2048
Tech@@ 2048
wast@@ 2048
anta 2048
effici@@ 2048
explore 2048
4,000 2047
victim 2047
requirement 2047
aul 2047
varied 2046
statements 2046
observation 2046
coach@@ 2046
Cann@@ 2046
t". 2046
simp@@ 2046
Georgi@@ 2046
N, 2045
Prussian 2045
Colonial 2045
radiation 2045
Esp@@ 2045
on), 2045
egg@@ 2045
performance, 2045
Lem@@ 2044
Cambodi@@ 2044
four-year 2044
Ronald 2044
Presbyterian 2044
fluor@@ 2043
course, 2043
indeed 2043
staff@@ 2043
go, 2042
truck 2042
contracts 2042
emigrated 2042
watching 2042
4/@@ 2042
Gan@@ 2042
Pakistan. 2042
favor@@ 2042
Advisory 2042
signals 2041
Trail 2041
experi@@ 2041
nineteenth 2041
Rag@@ 2041
saw@@ 2041
arena 2040
Manhattan 2040
ishes 2040
Cub@@ 2040
colleges 2040
tet@@ 2039
recovery 2039
define 2039
solu@@ 2039
avo@@ 2039
ches, 2039
three-year 2039
Horse 2039
Indonesia 2038
Peninsula 2038
wan 2037
Gram@@ 2037
killed. 2037
emen 2037
inian 2037
Cris@@ 2036
Tall@@ 2036
watched 2036
de's 2036
IB@@ 2035
Elementary 2035
random 2035
spots 2035
Fire@@ 2035
thal@@ 2035
Nintendo 2035
allies 2035
Show" 2035
ovi@@ 2034
RNA 2033
Georgia. 2032
ure" 2032
Lithuanian 2031
operation. 2031
affair 2031
Salv@@ 2031
atom@@ 2031
sia 2031
guided 2031
equally 2031
releas@@ 2031
burial 2030
interviewed 2030
justic@@ 2030
condemned 2030
petition 2029
PD@@ 2029
"No 2029
Kah@@ 2029
MB@@ 2029
Yang 2028
Small 2028
sep@@ 2028
shops 2028
twentieth 2027
Govern@@ 2027
ney@@ 2027
aux 2026
categories 2026
Fis@@ 2026
orth@@ 2026
companies, 2025
photo 2025
Barr@@ 2025
..." 2025
1948. 2025
ster. 2025
Fon@@ 2025
engagement 2024
people@@ 2024
succession 2024
vector 2023
Grand@@ 2023
Bath@@ 2023
1941. 2023
inter-@@ 2023
cha 2022
Lit@@ 2021
ously, 2021
apolog@@ 2021
artists, 2021
feels 2021
Colum@@ 2021
theoretical 2021
19. 2020
Islands. 2020
Angel 2019
ratings 2019
"Love 2019
nik 2019
Co-@@ 2019
reconc@@ 2019
Chann@@ 2019
honor@@ 2018
etti 2018
escap@@ 2018
ignor@@ 2018
5/@@ 2017
Republic, 2017
model, 2017
negoti@@ 2016
dang@@ 2016
Quar@@ 2016
nos@@ 2016
magazines 2016
sun 2016
tion; 2016
Henri@@ 2016
FA@@ 2016
that@@ 2015
ration@@ 2015
Hamp@@ 2015
ball, 2014
recurring 2014
Eag@@ 2014
learns 2014
1940. 2014
wood. 2013
Marc 2013
"On 2013
eping 2013
"What 2012
waves 2012
MR@@ 2012
compet@@ 2012
magnitude 2012
Falls 2011
January, 2011
itated 2011
autonomous 2011
kick 2011
enko 2011
Schwar@@ 2011
Bom@@ 2011
wickets 2011
Jeff@@ 2011
fame 2010
Golf 2010
spe@@ 2009
Avi@@ 2009
constantly 2009
collap@@ 2009
Progressive 2009
away, 2009
reas@@ 2009
stretch 2009
conceived 2009
adop@@ 2008
Cros@@ 2008
striking 2008
1902 2008
subfamily 2008
certainly 2008
Pear@@ 2008
Franz 2008
Vik@@ 2007
east-@@ 2007
is-@@ 2007
companies. 2007
environment. 2006
(10@@ 2006
Giants 2006
issues, 2006
Ltd. 2006
lia 2005
paint 2005
large, 2005
aerial 2005
Cork 2005
IA@@ 2005
poll 2005
Murphy 2005
ass, 2004
threat@@ 2004
U.@@ 2004
teammate 2004
−@@ 2004
orient@@ 2004
Stars 2004
163@@ 2003
20% 2003
oon@@ 2003
Peri@@ 2002
Sham@@ 2002
"El 2002
dynamic 2002
vital 2002
Guatem@@ 2002
,5@@ 2002
lease 2002
26.@@ 2001
pin 2001
Put@@ 2001
package 2001
ull@@ 2001
Jag@@ 2001
where, 2001
hus@@ 2000
big@@ 2000
Pat 2000
carto@@ 2000
Wolf@@ 1999
Confeder@@ 1999
tism 1999
colleagues 1999
Adam@@ 1999
"Star 1999
sharp 1998
ney. 1998
mented 1998
1943. 1998
oxygen 1998
albums, 1998
Aur@@ 1998
Ridge 1997
ers: 1997
friendship 1997
restaur@@ 1997
resort 1996
bridge, 1996
exhibitions 1996
discontinued 1996
Eventually, 1996
Penn 1996
130 1996
ardo 1996
fier 1996
Fern@@ 1996
provision 1995
OS@@ 1995
midfielder 1995
alp@@ 1995
Sle@@ 1995
riv@@ 1995
raw 1995
Justin 1994
May. 1994
distant 1994
attract 1994
uce 1993
compens@@ 1993
simil@@ 1993
sheet 1992
Isaac 1992
left-@@ 1992
inten@@ 1992
can't 1992
Garcia 1992
ere, 1992
1935, 1991
surpris@@ 1991
Short 1991
erate 1990
withdrawn 1990
legislature 1990
automatically 1989
rendered 1989
nia 1989
longtime 1989
of, 1989
graphy 1989
science, 1988
Gaz@@ 1988
bore 1988
allegations 1988
Hold@@ 1988
mar 1988
ocean 1988
planes 1987
Prov@@ 1987
interview@@ 1987
offic@@ 1986
stres@@ 1986
esch@@ 1986
Whi@@ 1986
Guy 1985
prov@@ 1984
hardware 1984
clean@@ 1984
Child 1984
collecting 1984
Draft. 1983
Bac@@ 1983
sacred 1983
muscle 1983
occasions 1982
Cabinet 1982
biting 1982
Famil@@ 1982
Techn@@ 1982
support. 1982
aked 1982
soap 1982
1961. 1981
considers 1981
bassist 1981
allocated 1981
IT 1981
president. 1981
sisters 1981
ef, 1981
united 1981
Marvel 1980
replic@@ 1980
US, 1980
ux@@ 1979
notice 1979
Chart 1979
rent 1979
Eu@@ 1979
Austri@@ 1979
horse@@ 1979
line@@ 1978
Valent@@ 1978
cher@@ 1978
samples 1978
eating 1978
"g@@ 1978
centuries. 1978
est-@@ 1978
fly@@ 1978
introduc@@ 1978
tight 1977
practic@@ 1977
tus 1977
Sik@@ 1977
animation 1977
experiment 1977
tour. 1977
've 1976
Denver 1976
trio 1976
"For@@ 1976
Liberty 1976
provisions 1976
regi@@ 1976
Cycl@@ 1975
injury. 1975
mentary 1975
nest@@ 1975
descent 1975
performs 1975
organize 1974
24-@@ 1974
Subsequently, 1974
Tok@@ 1974
Exchange 1974
uv@@ 1974
Syl@@ 1974
index 1973
reforms 1973
hi, 1973
terror@@ 1973
profile 1973
ne. 1972
ara, 1972
Parad@@ 1972
magic 1971
Coc@@ 1971
lav 1971
re's 1971
proced@@ 1971
"Car@@ 1971
Are@@ 1971
drug@@ 1971
a." 1970
Care@@ 1970
tac@@ 1970
graduation 1970
Multi@@ 1970
ars. 1970
UA@@ 1970
scattered 1970
north-@@ 1970
Afghanistan 1970
cave 1970
Rico 1969
disgu@@ 1969
uted 1969
Charl@@ 1969
Heb@@ 1969
Distric@@ 1969
report@@ 1968
ation". 1968
sed@@ 1967
1901 1967
Finance 1967
Stadium. 1967
Moon 1967
circ@@ 1967
Simp@@ 1966
colleg@@ 1966
ware 1966
prohi@@ 1965
Milli@@ 1965
1933, 1965
(14@@ 1964
lin, 1964
roles. 1964
p.m. 1964
victories 1964
carb@@ 1964
Child@@ 1964
innovative 1964
consensus 1963
Episcopal 1963
"American 1963
Kill@@ 1963
uff@@ 1963
(0.@@ 1963
spirit@@ 1962
Gord@@ 1962
ames 1962
accordance 1962
Illinois. 1962
iri 1962
spot@@ 1961
Joh@@ 1961
pend@@ 1961
kilomet@@ 1961
Pictures 1961
provinc@@ 1961
fusion 1960
deterior@@ 1960
then@@ 1960
enjoy 1959
mission, 1959
offer@@ 1959
cleared 1959
Independence 1959
academy 1959
Album 1958
specialist 1958
lands. 1958
onom@@ 1958
depends 1958
Year@@ 1958
array 1957
products. 1957
Ohio. 1957
ers". 1957
phil@@ 1957
wan@@ 1957
shipped 1957
facade 1957
Ferdinand 1957
atmosphere 1957
1947. 1957
Toronto, 1956
Switzerland. 1956
gie 1956
ance" 1956
widow 1955
CDP 1955
wich 1955
Ship@@ 1955
neck 1955
Wallace 1954
Artillery 1954
alistic 1954
Nun@@ 1954
att 1954
tia 1954
ato@@ 1953
venues 1953
Buch@@ 1953
,6@@ 1953
wom@@ 1953
attack, 1953
Gray 1953
battle, 1953
predat@@ 1953
Tong@@ 1952
Sullivan 1952
Antarctic 1952
SW@@ 1952
board. 1951
authored 1951
surrender 1951
;@@ 1951
ning. 1951
role, 1951
acy. 1951
empty 1951
commentary 1951
commemor@@ 1950
Louise 1950
Proc@@ 1950
cryp@@ 1950
Ref@@ 1950
declar@@ 1950
volunteers 1950
ault 1949
Survey 1949
currency 1949
improv@@ 1948
Miguel 1948
announcement 1948
meat 1947
FO@@ 1947
Mills 1947
revived 1947
players. 1947
thirty-@@ 1947
disturb@@ 1946
economics 1946
magaz@@ 1945
onia. 1945
diagnosed 1945
Hurricane 1945
"Qu@@ 1945
nation's 1945
matches, 1945
Hart 1945
construction, 1945
Scientific 1945
June. 1945
fus@@ 1944
esis 1944
Ire@@ 1944
Writing 1944
с@@ 1944
Boeing 1944
measuring 1944
Rhod@@ 1944
bes 1944
nan 1944
bia 1943
truly 1943
terrorist 1943
alist, 1942
jointly 1942
Tag@@ 1942
1930, 1942
Legion 1942
East, 1942
Card@@ 1942
ld@@ 1942
spelled 1942
Marin@@ 1941
cov@@ 1941
counts 1941
kat@@ 1941
inaugurated 1940
rant 1940
depicts 1940
location. 1940
heter@@ 1940
fi 1939
scorer 1939
alg@@ 1939
custom 1939
Without 1939
um", 1939
zen 1938
histori@@ 1938
Inc., 1938
talking 1938
compl@@ 1938
reserved 1938
pel 1937
listing 1937
Cant@@ 1937
Mall@@ 1937
130@@ 1937
army. 1937
legi@@ 1937
Kay@@ 1937
Block 1937
saving 1936
ux 1936
Francisco, 1936
naturally 1936
machines 1936
pu@@ 1936
critics. 1935
mer. 1935
regulation 1935
model. 1935
colored 1935
Leader 1935
Young@@ 1935
maker 1935
odes 1935
voy@@ 1935
Owen 1934
fut@@ 1934
Giovanni 1933
president, 1933
Hitler 1933
1956. 1933
(e.g., 1933
dle 1933
Men 1933
court, 1933
ardi@@ 1932
C's 1932
agreements 1932
earthquake 1932
gio 1932
advant@@ 1932
ross 1931
Conf@@ 1931
Bla@@ 1931
Gott@@ 1931
1957. 1931
dream 1930
World" 1930
Minor 1930
oid@@ 1930
confidence 1930
compani@@ 1930
flood@@ 1930
freed@@ 1930
aha 1930
ner. 1929
organization, 1929
Non-@@ 1929
Chancellor 1929
ch" 1928
pressed 1928
edo 1928
au. 1928
eight-@@ 1928
× 1928
coffee 1928
Bhar@@ 1927
gend@@ 1927
o), 1927
for-@@ 1927
nas@@ 1927
lateral 1927
praise 1927
bulk 1927
P.@@ 1926
awa, 1926
volcan@@ 1926
orchestr@@ 1926
Territory 1926
argue 1926
Maine 1926
triple 1926
intercep@@ 1926
tool@@ 1925
abol@@ 1925
Philadelphia, 1925
perspec@@ 1925
this. 1925
McCar@@ 1924
territ@@ 1924
Muse@@ 1924
football. 1924
successive 1924
aches 1924
error 1924
tural 1923
ints 1923
stolen 1923
thermal 1923
insist@@ 1923
second, 1923
creator 1923
(1@@ 1922
NW@@ 1922
corps 1922
i", 1922
consultant 1921
acon 1921
opposing 1921
Eff@@ 1921
class, 1921
1929, 1921
Marath@@ 1921
short-@@ 1920
manufacturers 1920
ana" 1920
ith@@ 1920
exterior 1920
Cli@@ 1919
liner 1919
Lum@@ 1919
fing@@ 1919
cliff@@ 1919
Tanz@@ 1919
earth@@ 1919
NB@@ 1918
shir@@ 1917
casting 1917
bell 1917
built, 1916
November. 1916
died, 1916
uals 1916
junc@@ 1916
retreat 1916
obtaining 1916
Past@@ 1915
removing 1915
Pier@@ 1915
Roman@@ 1915
institute 1915
Cut@@ 1915
attribu@@ 1915
gold@@ 1915
Reb@@ 1915
Pete 1915
promising 1914
Julian 1914
circul@@ 1914
necess@@ 1914
basin 1914
instruction 1914
21. 1914
tion". 1914
let, 1914
1958. 1913
veri@@ 1913
stronger 1913
gardens 1913
distinguish 1913
amps 1913
oni 1913
river@@ 1912
blood@@ 1912
acre 1912
wet 1911
Harvey 1911
church@@ 1911
fol@@ 1911
Todd 1910
suburban 1910
ere. 1910
Sti@@ 1910
foli@@ 1910
Review 1909
insec@@ 1909
Teh@@ 1909
set. 1909
convert 1909
full-length 1909
1939. 1908
examination 1908
Madrid 1908
sho@@ 1907
tham 1907
Valley, 1907
Associate 1907
prepar@@ 1906
28.@@ 1906
dense 1906
yst@@ 1906
atis@@ 1906
maps 1906
anese 1905
hav@@ 1905
Netherlands. 1905
ison, 1904
snow 1904
Wellington 1904
actor, 1904
master@@ 1904
followers 1903
lement 1903
Lec@@ 1903
gn@@ 1903
Dominican 1902
artwork 1902
-day 1902
push 1902
Ottawa 1902
hometown 1902
lord@@ 1901
lett 1901
tea 1901
expelled 1901
Lead@@ 1901
hyp@@ 1901
Hak@@ 1900
thou@@ 1900
eric 1900
Kenneth 1900
Julia 1900
Virgin@@ 1900
projects. 1900
las@@ 1899
Plan 1899
Sweden, 1899
organisations 1899
disput@@ 1899
cup@@ 1898
ace@@ 1898
Eur@@ 1898
mamm@@ 1898
on). 1898
Wildlife 1898
Tunisi@@ 1898
(at 1898
rough 1898
Cand@@ 1897
Peter@@ 1897
univers@@ 1897
treat@@ 1897
transl@@ 1896
Nobel 1896
achievement 1896
crucial 1896
[...] 1896
ec 1896
upset 1895
retre@@ 1895
engag@@ 1895
Coach 1895
cathedral 1895
Sydney, 1895
ava 1895
Sweden. 1895
Đ@@ 1894
convers@@ 1894
plates 1894
center. 1894
reason@@ 1894
festiv@@ 1894
Autom@@ 1894
players, 1893
Drum@@ 1893
studies, 1893
cia 1893
afternoon 1893
bom@@ 1893
feeding 1893
zero 1892
employee 1892
socialist 1892
bly 1892
Oak 1892
inclusion 1892
hybrid 1891
#1 1891
referendum 1891
defender 1891
industries 1891
consumption 1891
cip@@ 1890
surfac@@ 1890
stown 1890
contrast, 1890
Conven@@ 1889
undertaken 1889
ingen 1888
,8@@ 1888
cz@@ 1888
1950. 1888
check 1888
murder@@ 1888
Arts, 1888
leader, 1888
esian 1887
houses, 1887
loved 1887
Stock 1887
as' 1887
migration 1887
1950s. 1887
politicians 1886
athlete 1886
Moz@@ 1886
Premi@@ 1886
fasc@@ 1886
oting 1886
Jersey. 1886
Lig@@ 1886
adjust@@ 1886
Stand@@ 1885
Dynam@@ 1885
kk@@ 1885
Scor@@ 1885
Poli@@ 1885
Who 1885
entrepreneur@@ 1885
Slovak@@ 1885
range. 1884
Marcus 1884
Ant@@ 1884
30,000 1884
%). 1884
locked 1884
Kate 1884
GT@@ 1884
Edmund 1884
forec@@ 1884
flagship 1884
Butler 1883
French@@ 1883
ural 1883
46@@ 1883
weal@@ 1882
Pok@@ 1882
research. 1882
permit 1882
missionary 1882
eat@@ 1882
Benn@@ 1882
Presidential 1881
consequ@@ 1881
cat 1881
identification 1881
X, 1881
integral 1881
Ital@@ 1880
Cass@@ 1880
readers 1880
Canada's 1880
Love" 1880
TV. 1880
arily 1880
Olymp@@ 1879
urn 1879
strong@@ 1879
Nil@@ 1879
should@@ 1878
lecturer 1878
conductor 1878
Cruz 1878
gathering 1878
Against 1878
caf@@ 1878
Mani@@ 1877
torpedo 1877
wrec@@ 1877
Watson 1877
lee 1876
easier 1876
experts 1876
Crus@@ 1876
interrupted 1876
e—@@ 1876
Wea@@ 1876
stock@@ 1876
champion@@ 1876
neutral 1875
Internation@@ 1874
level@@ 1874
bench 1874
seni@@ 1874
league, 1874
developments 1874
co-founder 1874
Fair 1874
Munich 1873
Jones, 1873
directing 1873
tol@@ 1873
coc@@ 1873
Transit 1873
engine, 1873
ired 1873
ful, 1872
clan 1872
strateg@@ 1872
manor 1872
zo 1872
border. 1872
Arth@@ 1871
"Pro@@ 1871
boil@@ 1871
singer, 1871
eld 1871
label, 1870
rights. 1870
worker 1870
e.g. 1870
Gon@@ 1869
ests. 1869
ounds 1869
Race 1869
specimens 1869
camps 1869
remin@@ 1869
er). 1869
reviews. 1869
Champion@@ 1869
1890 1868
ini, 1868
intellig@@ 1868
underlying 1868
Michigan, 1868
"Tim@@ 1868
maxim@@ 1868
stag@@ 1868
unveiled 1868
loyal 1868
white, 1867
critically 1867
Dame 1867
absor@@ 1867
rooms, 1867
is' 1867
Alt@@ 1867
(known 1867
steam@@ 1867
parents, 1867
ail. 1867
jurisdic@@ 1867
slow@@ 1867
bounded 1866
marriage, 1866
amo 1866
mb@@ 1866
PL@@ 1866
Hall. 1865
HL 1865
Times", 1865
rifle 1865
Pris@@ 1865
alist. 1865
Zhang 1865
relay 1865
operative 1865
languages, 1865
Far 1865
Railways 1864
knocked 1864
Beach, 1864
estim@@ 1864
variations 1864
explored 1864
T.@@ 1864
pover@@ 1863
ro-@@ 1863
graphics 1863
in) 1863
colour@@ 1863
extrac@@ 1863
orn@@ 1863
Jas@@ 1863
Institute, 1862
Azerbaijan 1862
artist. 1862
makers 1862
le: 1862
virus 1861
presentation 1861
secur@@ 1861
Serbia 1861
abroad 1861
Thorn@@ 1860
shows, 1860
addi@@ 1860
Sap@@ 1860
Josh 1860
Vick@@ 1860
intensi@@ 1860
fate 1860
Boh@@ 1859
consistently 1859
uy@@ 1859
autumn 1859
bian 1859
dressed 1859
respectively, 1858
iz 1858
cool@@ 1858
Oil 1858
rounded 1858
erie 1858
technologies 1857
1899 1857
wingspan 1857
touch 1857
properly 1857
predicted 1857
IC 1857
circumstances 1857
preceding 1856
uality 1856
fied. 1856
AFC 1856
Down 1855
Lutheran 1855
Charle@@ 1855
U) 1855
f-@@ 1855
reser@@ 1855
("M@@ 1854
Yar@@ 1854
wrong 1854
uti@@ 1854
ches. 1854
venu@@ 1854
acy, 1854
fort@@ 1854
obst@@ 1853
Stal@@ 1853
anchor 1853
receiver 1853
extr@@ 1852
Emil@@ 1852
Oz@@ 1852
ves@@ 1852
training, 1852
scop@@ 1852
1959. 1852
Blues 1852
Storm 1851
Montgomery 1851
Brown, 1851
istics 1851
Bosnia 1851
procedure 1851
Bad 1851
All-Ireland 1851
en", 1850
aggressive 1850
Mom@@ 1850
notion 1850
nu@@ 1849
acking 1849
dict@@ 1849
Side 1849
sex, 1849
duration 1849
anding 1849
a"), 1849
(184@@ 1848
ers; 1848
media, 1848
Brown@@ 1848
ership 1848
1934, 1848
oka 1848
lex@@ 1847
(17@@ 1847
erly 1847
critics, 1846
lesser 1846
wond@@ 1846
openly 1846
campaign@@ 1846
character. 1846
Zar@@ 1846
Sour@@ 1846
dancing 1845
Games, 1845
advocated 1845
wall@@ 1845
afford 1845
fication, 1845
gat@@ 1845
bacter@@ 1845
poorly 1845
advisor 1845
Lanka 1844
and's 1844
Goth@@ 1844
Sard@@ 1844
tourism 1843
fication. 1843
Caes@@ 1843
introducing 1843
Sever@@ 1843
Committee. 1843
media. 1843
atta 1842
insisted 1842
ola, 1842
wake 1842
fires 1842
achieving 1842
Edi@@ 1842
an". 1842
characters, 1842
army, 1842
intervention 1841
though, 1841
Student 1841
minor@@ 1841
grants 1841
asing 1841
encounter 1841
interim 1841
sley 1840
saying, 1840
Dres@@ 1840
harm@@ 1840
Anth@@ 1840
s") 1840
Mac 1840
erous 1839
apart@@ 1839
contempor@@ 1839
teen@@ 1838
foun@@ 1838
Nature 1838
free-@@ 1838
Theod@@ 1838
Jenn@@ 1838
Institu@@ 1838
rer 1838
proximity 1837
signat@@ 1837
trail@@ 1837
conqu@@ 1837
degre@@ 1837
rescu@@ 1837
turing 1836
reliable 1836
Bengal 1836
ash. 1836
it." 1836
Alaska 1836
contracted 1835
compon@@ 1835
circumst@@ 1835
noise 1835
dos@@ 1835
kidn@@ 1834
divorced 1834
invested 1834
chess 1834
heir 1834
loss. 1834
manual 1834
U, 1834
coaches 1833
property. 1833
that's 1833
imported 1833
wrote: 1833
* 1833
Emmy 1833
Beg@@ 1832
etal 1832
Valenci@@ 1832
division, 1831
Christianity 1831
rises 1831
maternal 1831
conflicts 1831
rick@@ 1831
ovich 1831
literature, 1830
elaborate 1830
throwing 1830
options 1830
Korea, 1830
Go 1830
filling 1830
1949. 1830
banking 1830
convoy 1829
Kad@@ 1829
atives, 1829
recomm@@ 1829
decreased 1829
knows 1829
guidance 1828
tion", 1828
Phillips 1827
philanthrop@@ 1827
nationally 1827
ester, 1827
bund@@ 1827
tradi@@ 1827
ang. 1827
noticed 1827
before. 1827
ong. 1826
prisoner 1826
citiz@@ 1826
159@@ 1826
Muk@@ 1826
West, 1826
dialogue 1826
You" 1826
finals, 1826
pist@@ 1826
Manager 1825
Nine 1825
length. 1825
Rol@@ 1825
Canad@@ 1825
Range 1825
blocked 1824
Venice 1824
tex@@ 1824
solutions 1824
choir 1824
intent 1824
(of 1824
emper@@ 1824
Dir@@ 1824
Herzegov@@ 1824
Minist@@ 1823
anal@@ 1823
preventing 1823
findings 1822
Iran@@ 1822
ght 1822
na, 1822
essions 1822
remarkable 1822
book. 1822
quarter-@@ 1822
athy 1822
Delaware 1821
discrimin@@ 1821
mom@@ 1821
extrem@@ 1821
Typ@@ 1821
Navy. 1821
в@@ 1821
flies 1821
Books 1820
Raz@@ 1820
Limit@@ 1820
refl@@ 1820
monast@@ 1820
counted 1820
Rome. 1820
training. 1820
astronom@@ 1820
ering. 1820
pon@@ 1820
kinds 1819
mineral 1819
CO 1819
Hann@@ 1819
Broc@@ 1819
concent@@ 1819
flowering 1819
alty 1819
Slav@@ 1819
light, 1819
photographer 1818
armies 1818
rocket 1818
biography 1818
detail 1817
inform@@ 1817
lev@@ 1817
streak 1817
goalkeeper 1817
operations, 1817
Ax@@ 1817
centre. 1817
chaired 1817
Similarly, 1817
Theodore 1816
Some@@ 1816
finite 1816
29.@@ 1816
facilitate 1816
Lah@@ 1816
wis@@ 1815
Part@@ 1815
1940s 1815
club@@ 1815
ad" 1814
arrangements 1814
exile 1814
Argent@@ 1814
disaster 1814
wide. 1814
Spencer 1814
Kul@@ 1814
efficiency 1814
Nick@@ 1814
Peters@@ 1814
158@@ 1814
1895 1813
statistical 1813
tion) 1813
crops 1813
Kre@@ 1812
Blo@@ 1812
conquered 1812
Israel, 1812
bordered 1812
charted 1812
Stakes 1812
programs, 1812
predecessor 1812
river, 1811
Currently, 1811
hamlet 1811
coron@@ 1811
hind@@ 1811
icul@@ 1811
Next 1811
Polic@@ 1810
к@@ 1810
t; 1810
atro@@ 1810
Museum. 1810
singers 1809
but, 1809
1916, 1809
Las@@ 1809
ras 1809
pursu@@ 1809
Cambridge, 1809
Silver@@ 1808
strikes 1808
bank@@ 1808
force, 1808
constituted 1807
ights, 1807
reviews, 1807
pattern@@ 1807
asi 1806
34@@ 1806
tively 1806
Philippines. 1806
director@@ 1805
Fen@@ 1805
Hed@@ 1805
900 1805
committe@@ 1804
eness 1804
Leagu@@ 1804
pled 1804
1918. 1804
DP 1804
B) 1804
Fernando 1803
disease. 1803
money. 1803
refin@@ 1803
$1.@@ 1803
dealt 1803
Ruth 1803
degrad@@ 1803
AP 1803
Chat@@ 1802
Junction 1802
witness 1802
friends, 1802
oods 1802
tari@@ 1802
circum@@ 1802
Bras@@ 1802
departments 1802
ande@@ 1802
aman 1802
Les 1801
2019@@ 1801
locate 1801
s.@@ 1801
Persi@@ 1801
Committee, 1801
1955. 1801
prince 1800
distr@@ 1800
Emma 1800
county, 1800
headquar@@ 1800
songwriter 1800
therapy 1800
released, 1800
SL@@ 1800
dropping 1800
Magic 1800
tip 1800
inspir@@ 1799
alcohol@@ 1799
milk 1799
ans" 1799
casualties 1799
sati@@ 1799
ac, 1799
-in-law 1798
Saw@@ 1798
cand@@ 1798
politics, 1798
exhibi@@ 1798
landmark 1798
ee, 1798
horizontal 1798
overs 1798
SD@@ 1798
congregation 1797
derives 1797
votes. 1797
compatible 1797
dollars 1797
angel@@ 1797
Cath@@ 1797
cord@@ 1796
material. 1796
ll 1796
ities, 1796
household@@ 1796
knee 1795
Thailand 1795
O-@@ 1795
osph@@ 1795
que. 1795
Indo-@@ 1795
Wer@@ 1794
Citi@@ 1794
1898 1794
proposals 1794
attemp@@ 1794
aran 1794
)". 1794
awa@@ 1793
Liberation 1793
conquest 1793
opportun@@ 1793
Years 1793
computers 1793
congressional 1793
sman 1793
ore@@ 1793
ministers 1792
LGBT 1792
Unit@@ 1792
garrison 1792
enburg 1792
aside 1792
Hawaii 1791
Colleg@@ 1791
MT@@ 1791
MC 1791
Angl@@ 1791
cricket@@ 1791
ick. 1791
football@@ 1791
Original 1790
tom 1790
stations, 1790
politically 1790
ached 1790
ably, 1790
nationwide 1790
genes 1790
wag@@ 1790
expedi@@ 1790
femin@@ 1789
attor@@ 1789
proportion 1789
Town, 1789
badly 1789
ruins 1789
fications 1789
stim@@ 1789
arguing 1789
Art, 1789
Austria, 1788
atori@@ 1788
Comedy 1788
all-time 1788
proble@@ 1788
Organiz@@ 1787
pub@@ 1787
illness 1787
song's 1787
weap@@ 1787
run. 1786
Washington. 1786
Guardi@@ 1786
tissu@@ 1786
Mason 1786
Baltic 1786
Beth@@ 1786
sentim@@ 1786
magazine. 1786
Elec@@ 1786
writing, 1786
circulation 1785
Eagles 1785
Raw@@ 1785
Rum@@ 1785
march 1785
English@@ 1785
successful, 1785
invaded 1785
erup@@ 1784
resist@@ 1784
ama, 1784
believing 1784
ound, 1784
desert 1783
Bay. 1783
debat@@ 1783
grid 1783
Alberta 1783
Oxford, 1783
view, 1782
ual@@ 1782
co-founded 1782
counter 1782
Williams, 1782
runner-up 1782
Christian@@ 1782
earn@@ 1782
promise 1781
diseas@@ 1781
Rah@@ 1781
island, 1781
rais@@ 1781
Steel 1781
same-sex 1780
Near 1780
levels. 1780
accum@@ 1780
FBI 1780
accompanying 1780
iser 1780
questioned 1779
preced@@ 1779
Secret 1779
!", 1779
fluid 1779
bars 1779
apol@@ 1779
Braz@@ 1779
1915, 1779
Sir@@ 1778
Grey 1778
millions 1778
shallow 1778
tissue 1778
distingu@@ 1778
V, 1778
manip@@ 1778
raced 1778
literature. 1777
branded 1777
large-scale 1777
fic 1777
Wolver@@ 1777
helicopter 1776
is". 1776
Pop 1776
Dat@@ 1776
dur@@ 1775
trav@@ 1775
society, 1775
runner 1775
Dest@@ 1775
such, 1775
tomb@@ 1775
rely 1774
Wrest@@ 1774
centuries, 1774
sting 1774
ticul@@ 1774
ler@@ 1774
reads 1774
fossil 1774
destroying 1773
nationalist 1773
tains 1773
1896 1773
idae, 1773
ham. 1773
author, 1773
app 1773
"m@@ 1772
Fifth 1772
es—@@ 1772
Do 1772
physically 1772
Syria 1772
control, 1771
Parliament. 1771
prints 1771
story. 1771
], 1771
estimate 1771
grav@@ 1771
combin@@ 1771
Instead 1771
anarch@@ 1771
dwell@@ 1771
winter@@ 1771
short-lived 1771
spotted 1771
Girls 1771
opens 1770
Israel. 1770
operation, 1770
beli@@ 1770
earlier. 1770
Florence 1770
Shir@@ 1770
uss 1769
ering, 1769
aren@@ 1769
18-@@ 1769
2:@@ 1769
"...@@ 1768
thriller 1768
consolid@@ 1768
tale 1768
pro 1768
Lic@@ 1768
present. 1768
_@@ 1768
future. 1767
Dam 1767
achi 1767
Data 1767
size, 1767
including: 1767
Chel@@ 1767
ay's 1766
Horn@@ 1766
stations. 1766
Coo@@ 1766
ingo 1765
Servic@@ 1765
Mort@@ 1765
intensity 1765
assessment 1765
Victoria, 1765
kg 1765
Consul@@ 1765
tious 1765
programmes 1764
themselves. 1764
Congress. 1764
"I'm 1764
boxing 1764
version. 1764
Alp@@ 1764
demonstrate 1763
3" 1763
kov 1763
spite 1763
Various 1763
German-@@ 1763
stake 1763
anag@@ 1763
adh@@ 1763
inhabit@@ 1762
oppos@@ 1762
diversity 1762
Hans@@ 1762
sburg 1762
Principal 1762
1893 1762
Vor@@ 1761
ires 1761
ia's 1761
Semin@@ 1761
retro@@ 1761
flour@@ 1761
withdrawal 1761
Pag@@ 1761
say@@ 1761
abi 1760
itable 1760
Wyn@@ 1760
subtropical 1760
pit@@ 1760
Jeremy 1760
aton 1760
oud 1760
ya, 1759
summar@@ 1759
gates 1759
Hospital, 1759
suspen@@ 1759
ailing 1759
Academy, 1759
Romania 1758
Emper@@ 1758
ark 1758
ense 1758
25th 1758
matrix 1758
half@@ 1758
rov@@ 1758
Stein@@ 1757
producer, 1757
explosi@@ 1757
Grande 1757
volcanic 1757
layers 1757
Dougl@@ 1757
curve 1757
Maced@@ 1756
ko@@ 1756
Spo@@ 1756
compact 1756
status. 1755
ensu@@ 1755
unsuccessfully 1755
conditions, 1755
journalists 1755
rebellion 1755
rebel 1755
tible 1754
Harbor 1754
endorsed 1754
holid@@ 1754
Edgar 1753
sib@@ 1753
CT@@ 1753
Facebook 1753
Aboriginal 1753
|@@ 1753
Stadium, 1752
(March 1752
tigh@@ 1752
eful@@ 1752
anime 1752
Eagle 1752
export 1752
fix 1752
eal 1752
cir@@ 1751
anga 1751
Barcelona 1751
antiqu@@ 1751
yi@@ 1751
undertook 1751
Shaw 1750
term. 1750
comed@@ 1750
110 1750
need@@ 1750
reasons. 1750
fish, 1750
mall 1750
pregn@@ 1750
put@@ 1749
bak@@ 1749
There, 1749
Corporation, 1749
narrowly 1749
enhanced 1749
eme 1749
Left 1749
Performance 1749
atus 1749
"Los 1748
Court, 1748
earthqu@@ 1748
bou@@ 1748
secular 1748
pedi@@ 1748
manager. 1747
preceded 1747
Hope 1747
technology, 1747
tournam@@ 1747
tast@@ 1747
diag@@ 1747
forty 1747
enger 1747
admir@@ 1746
aggres@@ 1746
draws 1746
rights, 1746
Mountain@@ 1746
question@@ 1746
get@@ 1746
dissol@@ 1746
Veg@@ 1746
sacrific@@ 1746
customer 1746
Vegas 1745
Claude 1745
,7@@ 1745
lighting 1745
itter 1745
geographical 1745
Marc@@ 1745
Fra@@ 1745
enjoy@@ 1745
Airlines 1745
hat 1745
55@@ 1744
messages 1744
rington 1744
Centur@@ 1743
ans' 1743
AF 1743
controlling 1743
rowing 1743
Children 1742
trend 1742
pull 1742
escort 1742
ria 1742
ball. 1742
wire 1742
ign 1741
Solomon 1741
actions. 1741
gest@@ 1741
"When 1741
renovated 1741
pen 1741
two, 1741
Glen 1741
ε@@ 1740
Henri 1740
elia 1740
orous 1740
Haj@@ 1740
AE@@ 1740
actor. 1740
tracks. 1740
Chuck 1740
Wells 1739
Chapter 1739
presenting 1739
Berk@@ 1739
ologies 1739
borg 1738
seeds 1738
bill@@ 1738
Westminster 1738
marriage. 1738
mati@@ 1738
aly@@ 1738
shed 1738
equation 1738
bron@@ 1738
Critics 1738
cin@@ 1738
1953. 1737
ory. 1737
Cavalry 1737
Classical 1737
bi 1737
ity-@@ 1737
dying 1737
port. 1737
Ras@@ 1736
atives. 1736
investigated 1736
wars 1736
Nation 1735
Tai@@ 1735
register 1735
fun 1735
Then, 1735
le". 1734
leaf@@ 1734
a.@@ 1734
abs@@ 1733
enemies 1733
attrac@@ 1733
linking 1733
uman 1733
Story 1733
instance 1732
Lucas 1732
pes@@ 1732
uph@@ 1732
cann@@ 1732
excess 1732
т@@ 1732
trips 1732
PP@@ 1732
Fem@@ 1732
diagnos@@ 1732
officer, 1732
website. 1732
Report@@ 1732
Initially, 1731
BO@@ 1731
Nigerian 1731
Ard@@ 1731
itting 1731
Coch@@ 1731
skill 1731
assed 1731
Sett@@ 1730
ti. 1730
ophil@@ 1730
Aircraft 1730
land) 1730
rookie 1730
SN@@ 1729
zi 1729
disast@@ 1729
Springs 1729
protecting 1728
Lisa 1728
ff, 1728
retail@@ 1728
coup@@ 1728
manufacture 1728
ately, 1728
illo 1727
Hog@@ 1727
Loy@@ 1727
"Black 1727
translat@@ 1727
hil@@ 1726
Leslie 1726
civili@@ 1726
Allan 1726
deposits 1726
Nass@@ 1726
mission@@ 1726
tended 1726
recreational 1726
valued 1725
gly@@ 1725
sym@@ 1725
wide, 1725
reflects 1725
Conference. 1725
Alask@@ 1725
TH@@ 1725
resource 1724
activity. 1724
ov. 1724
tomb 1724
MD 1724
snail, 1724
Magazine" 1724
marketed 1724
Dakota 1724
oak 1723
revolution 1723
Ng@@ 1723
philosophical 1723
ark@@ 1723
reserves 1723
Gav@@ 1723
hai 1723
Annual 1723
coach, 1723
Warri@@ 1722
leased 1722
queen 1722
Peop@@ 1722
Napoleon 1722
oxy@@ 1722
perspective 1721
urs 1721
vertebr@@ 1721
Cran@@ 1721
practice, 1721
Hoff@@ 1721
Lincol@@ 1720
1954. 1720
aceae. 1720
observations 1720
wall, 1720
ا@@ 1720
urged 1720
Dram@@ 1720
rivalry 1719
Cret@@ 1719
a'@@ 1719
Carlo 1719
em. 1719
wife. 1719
cotton 1718
i) 1718
thereafter 1718
ild 1718
simpl@@ 1718
Countr@@ 1718
21@@ 1717
emer@@ 1717
Drive 1717
Chan@@ 1717
uj@@ 1717
Martin@@ 1717
"Am@@ 1716
trouble 1716
omo 1716
specially 1716
relegation 1716
vent 1716
considerably 1716
state-@@ 1716
1927, 1716
Shah@@ 1716
dynam@@ 1716
Battalion, 1716
inte@@ 1716
Atlan@@ 1715
1952. 1715
accidentally 1715
slopes 1715
Bryan 1715
athe@@ 1715
Snow@@ 1714
Price 1714
onym@@ 1714
Voc@@ 1714
Nancy 1713
Champ@@ 1713
light. 1712
perf@@ 1712
Agricultural 1712
etz@@ 1712
activists 1712
center, 1712
2020 1712
fortress 1712
kings 1712
Additional 1712
reinforced 1712
goal@@ 1711
adver@@ 1711
1–1 1711
Pom@@ 1711
Chen 1711
Shanghai 1711
Labor@@ 1711
er-in-@@ 1711
Wend@@ 1711
loading 1711
centres 1711
survivors 1711
list, 1710
"—@@ 1710
spher@@ 1710
WR@@ 1710
Rachel 1710
recover 1709
Julius 1709
le) 1709
woman, 1709
Others 1709
patron 1709
today's 1709
Nap@@ 1708
orbit 1708
gene@@ 1708
com 1708
highest-@@ 1708
News" 1708
(an 1708
Kot@@ 1708
Auckland 1708
1889 1708
phras@@ 1707
R&@@ 1707
colonies 1707
ant" 1707
"For 1706
favour@@ 1706
Clin@@ 1706
eim 1706
rushing 1706
internation@@ 1706
Apart 1706
sson 1706
Winter@@ 1705
Bros. 1705
playoffs 1705
Vall@@ 1705
hag@@ 1705
loaned 1705
"Big 1705
'The 1705
Arctic 1705
30-@@ 1705
compositions 1705
ettes 1705
virtu@@ 1704
lineup 1704
ensive 1704
withdraw 1703
discre@@ 1703
nut 1703
haus@@ 1703
respected 1702
differ 1702
Athens 1702
amaz@@ 1702
Mans@@ 1702
Filipino 1702
illed 1702
adoption 1701
welfare 1701
Glenn 1701
feminist 1701
ables, 1701
flowing 1701
rapper 1701
Mass 1701
superi@@ 1701
(on 1700
trump@@ 1700
lacked 1700
Malay@@ 1700
dialect 1700
Reich@@ 1700
oul 1699
discrimination 1699
blues 1699
ly" 1699
antagon@@ 1699
rebels 1699
ices 1699
pag@@ 1699
succeed 1699
feed@@ 1698
Libr@@ 1698
Pand@@ 1698
arose 1698
resign@@ 1698
stabili@@ 1698
units, 1698
ently. 1698
crashed 1698
en) 1697
reunited 1697
developers 1697
RP@@ 1697
speaks 1697
ions 1697
ells 1697
award. 1697
Hindi 1697
advancing 1697
Fighter 1697
prison. 1696
public, 1696
ð@@ 1696
1924, 1695
run, 1695
volleyball 1695
peaking 1695
bush 1695
Safety 1695
Carnegie 1695
teamed 1694
vicinity 1694
militia 1694
wards. 1694
where@@ 1694
eds, 1693
Knights 1693
Princeton 1693
Me" 1693
1912, 1693
correspond@@ 1693
adem@@ 1692
Imag@@ 1692
Lake, 1692
ally-@@ 1692
enced 1692
registration 1692
voyage 1692
estimates 1692
Michel 1691
valid 1691
chol@@ 1691
brook 1691
comprised 1691
vacc@@ 1691
1928, 1691
Oakland 1690
25. 1690
1919. 1690
video, 1690
uch 1690
Emily 1690
"Her@@ 1689
meg@@ 1689
umber@@ 1689
Francis@@ 1689
atomic 1689
Lopez 1689
Grove 1688
bat 1688
Province. 1688
December. 1688
a–@@ 1688
Nichol@@ 1688
ensemble 1687
capac@@ 1687
descended 1687
beat@@ 1687
ocking 1686
Being 1686
1921, 1686
Tayl@@ 1686
adol@@ 1686
1892 1686
developer 1686
Jal@@ 1685
udi 1685
agrees 1685
advent@@ 1685
Sea. 1685
Point@@ 1684
country@@ 1684
cho 1684
Copa 1684
ati, 1684
phenomenon 1684
Congress, 1684
healthy 1684
estates 1683
sar 1683
Doll@@ 1683
1894 1683
commercially 1683
di, 1682
Hut@@ 1682
colonel 1682
Jac@@ 1682
Mitch@@ 1682
two. 1682
March. 1682
logical 1682
detec@@ 1682
Tang 1681
wished 1681
civilians 1681
induced 1681
isol@@ 1681
Tampa 1681
Phys@@ 1681
IBM 1680
Stud@@ 1680
susp@@ 1680
co. 1680
1932, 1680
Cort@@ 1680
Ley@@ 1680
news@@ 1680
ished. 1680
Monday 1680
must@@ 1680
Eurovision 1680
ichi 1679
Zo@@ 1679
Cali@@ 1679
orange 1679
Centr@@ 1679
calendar 1679
partnered 1678
1923, 1678
enny 1678
hours, 1678
kis@@ 1678
fa 1677
past, 1677
Bronze 1677
Reform 1677
Koh@@ 1677
ologically 1677
coff@@ 1676
izes 1676
kir@@ 1676
Corp@@ 1676
orized 1676
hym@@ 1676
isha 1676
college, 1676
examined 1676
successful. 1676
Rox@@ 1675
child. 1675
GP@@ 1675
pregnant 1675
divorce 1675
disciplinary 1675
Enterpris@@ 1675
90% 1674
county. 1674
themed 1674
bishops 1674
database 1674
Mobile 1674
Commerce 1674
purposes. 1673
ant-@@ 1673
loy@@ 1673
television, 1673
segments 1673
telec@@ 1673
sustainable 1672
Fres@@ 1672
15-@@ 1672
restaurants 1672
some@@ 1672
hos@@ 1672
review, 1672
onds 1672
tele@@ 1672
Att@@ 1672
lessons 1672
ian@@ 1672
eighteen 1672
athlet@@ 1671
Chicago. 1671
sudden 1671
Working 1671
were: 1671
Fai@@ 1671
Hunt 1671
tide 1671
Hod@@ 1671
encies 1671
condi@@ 1670
chen 1670
sided 1670
encoded 1670
Honor 1670
Gerald 1669
Speaker 1669
grain 1669
danger 1669
comics 1669
Switzerland, 1669
compounds 1669
contain@@ 1669
Panama 1668
delay 1668
Hull 1668
Pradesh 1668
Every@@ 1668
'll 1668
will@@ 1668
Krist@@ 1668
Maryland, 1667
starter 1667
technology. 1667
tual 1667
chim@@ 1667
,9@@ 1667
ffs 1667
drink 1666
lied 1666
reconstruction 1666
generations 1666
A). 1666
manager, 1666
inclu@@ 1666
Campaign 1666
WH@@ 1666
implement 1665
ound. 1665
Iz@@ 1665
pianist 1665
Know@@ 1665
sis 1664
Wu 1664
destination 1664
think@@ 1664
manga 1664
term, 1664
dian 1664
80% 1663
tion's 1663
noti@@ 1663
Ugand@@ 1663
Newport 1663
artists. 1663
probability 1663
Actor 1663
157@@ 1663
Sox 1662
King, 1662
1938. 1662
Milwaukee 1662
Triple 1662
negl@@ 1662
quest 1662
ouse 1661
este@@ 1661
surrendered 1661
opping 1661
1885 1660
electr@@ 1660
ced@@ 1660
mud 1660
check@@ 1660
onc@@ 1660
Johnson, 1660
dub@@ 1660
engineers 1660
(one 1660
guards 1659
DR@@ 1659
found. 1659
t: 1659
Caroline 1659
Scre@@ 1659
chester 1659
shock 1659
Muslim@@ 1659
O.@@ 1658
Paragu@@ 1658
legisl@@ 1658
astro@@ 1658
hull 1658
155@@ 1658
ess" 1657
engine. 1657
lectures 1657
ide, 1657
Roch@@ 1657
amine 1657
rush@@ 1657
Order: 1656
termed 1656
1,5@@ 1656
near@@ 1656
passeng@@ 1656
primar@@ 1656
omer@@ 1655
persuaded 1655
ight. 1655
eal@@ 1655
3.5 1655
tracks, 1654
inser@@ 1654
Protest@@ 1654
guitar, 1654
steep 1653
studies. 1653
below. 1653
wig@@ 1653
remi@@ 1653
evo 1652
rainfall 1652
1897 1652
Official 1652
ously. 1652
cran@@ 1651
n't 1651
magn@@ 1651
Monte 1651
cook@@ 1651
base, 1651
intersec@@ 1651
Ahmed 1651
Girl 1651
Guadal@@ 1651
rock@@ 1651
asian 1651
luxury 1651
capital, 1650
appearance. 1650
FS@@ 1650
sic@@ 1650
ward. 1650
pret@@ 1650
.' 1650
stere@@ 1650
Yugoslav 1650
cass@@ 1649
marched 1649
156@@ 1649
NATO 1649
Cardiff 1649
maritime 1649
lington 1649
gear 1649
phi@@ 1649
Bohem@@ 1649
tas@@ 1649
response, 1649
explicitly 1649
Warsaw 1649
politics. 1649
ishi 1648
ma. 1648
proven 1648
architec@@ 1648
East. 1648
gig@@ 1648
icate 1648
eleg@@ 1648
health, 1648
Prac@@ 1648
recently, 1647
Laboratory 1647
Kenn@@ 1647
ERA 1647
Kend@@ 1647
ony, 1647
defines 1647
medal. 1647
Gas@@ 1647
1931, 1646
Heavyweight 1646
opted 1646
fied, 1646
food, 1646
50th 1646
luc@@ 1646
rebelli@@ 1645
portraits 1645
val, 1645
wise 1645
combining 1645
oi 1645
Ellen 1645
Ontario. 1645
screened 1645
visit@@ 1645
1922, 1644
March@@ 1644
operators 1644
cros@@ 1644
fore@@ 1644
Key 1644
Dill@@ 1644
phenomen@@ 1644
Hack@@ 1643
stated, 1643
ør@@ 1643
mollusk 1643
charg@@ 1643
iden@@ 1643
Mother 1643
desired 1643
anthropolog@@ 1643
mel 1643
Lebanon 1642
communities. 1642
shelter 1642
Siber@@ 1642
hid@@ 1642
wage 1642
Pac@@ 1642
Fly@@ 1642
flown 1642
Somerset 1641
Circ@@ 1641
Mechan@@ 1641
prin@@ 1641
vice-@@ 1641
Bishop@@ 1641
tournaments 1641
projected 1641
1; 1641
Education, 1641
via, 1641
staying 1641
witnessed 1640
battle@@ 1640
April. 1640
controversi@@ 1640
University's 1640
After@@ 1640
Nigeria 1640
fold 1640
Lithu@@ 1640
row, 1639
Patric@@ 1639
Punj@@ 1639
reviewer 1639
dev@@ 1639
Sau@@ 1639
buying 1639
interface 1639
HD 1638
Holland 1638
:30 1637
rally 1637
coupled 1637
chart, 1637
statis@@ 1637
Economics 1637
narr@@ 1636
tox@@ 1636
Built 1636
attitude 1636
Flow@@ 1636
ky@@ 1636
Jamie 1636
locomo@@ 1635
acles 1635
Dro@@ 1635
Ahmad 1635
veter@@ 1635
Foster 1635
trick 1635
surround@@ 1634
drums 1634
demonstr@@ 1634
monitoring 1634
rehear@@ 1634
ores 1634
assign@@ 1633
Examples 1633
survival 1633
ock. 1633
po 1633
south-@@ 1633
resolved 1632
Bren@@ 1632
Play 1632
cott@@ 1632
"t@@ 1632
Edwin 1632
Wid@@ 1632
stems 1632
ity; 1631
ther's 1631
telescop@@ 1631
shoulder 1631
Romani@@ 1631
Prin@@ 1631
cats 1631
land" 1631
ple-@@ 1631
ber. 1631
ej@@ 1631
proceeds 1630
Clarke 1630
ika 1630
Kw@@ 1630
doubt 1630
tor's 1630
edg@@ 1630
icity 1630
Foundation. 1629
Harv@@ 1629
Trac@@ 1629
Winn@@ 1629
stom@@ 1629
varieties 1629
Valley. 1629
transmitter 1628
accommod@@ 1628
ed). 1628
abbreviated 1628
Greek@@ 1628
wall. 1628
n’t 1628
breed 1628
Care 1628
ation", 1628
Margar@@ 1628
cyc@@ 1627
assassination 1627
download 1627
ucky 1627
unknown. 1627
Jak@@ 1627
bowl 1627
100, 1626
Man" 1626
surface. 1626
reservoir 1626
pleas@@ 1626
Cust@@ 1625
disabled 1625
Path@@ 1625
icians 1625
colli@@ 1625
'" 1625
newer 1625
Jennifer 1625
MH@@ 1624
moderni@@ 1624
Kyle 1624
ench@@ 1624
Pak@@ 1624
Chem@@ 1624
ong-@@ 1624
Chile 1624
eliminate 1624
scene, 1624
alt 1623
continuously 1623
freestyle 1623
estone 1623
CL@@ 1623
nee 1622
Right 1622
atics 1622
lah 1622
organizing 1622
a/@@ 1621
Armstrong 1621
min 1621
Popular 1621
Capitol 1621
minimal 1621
Bennett 1621
outing 1621
ław 1621
gar 1621
CR 1621
Tap@@ 1621
"X@@ 1620
Jesse 1620
Actress 1620
XI 1620
Sr@@ 1620
support, 1619
(1.@@ 1619
pill@@ 1619
defin@@ 1619
ake. 1619
coast. 1619
IX 1619
board, 1619
walked 1619
drawings 1619
premier 1618
Corps, 1618
vis 1618
experiment@@ 1618
IO@@ 1617
Egypt, 1617
equipment. 1617
diseases 1617
receptor 1617
glass@@ 1617
thy 1617
Smo@@ 1617
rane 1617
VII 1617
anca 1617
calculated 1617
ra" 1616
Doug 1616
societ@@ 1616
Grammar 1616
NT@@ 1616
conflic@@ 1616
Qur@@ 1616
rhythm 1616
moun@@ 1615
brand@@ 1615
today, 1615
skilled 1615
ayl@@ 1615
Dim@@ 1615
scand@@ 1615
ur. 1615
tan 1615
1926, 1615
Chicag@@ 1614
sleep@@ 1614
elsewhere 1614
Palestine 1614
stability 1614
sleep 1614
Elli@@ 1614
minutes, 1613
Bey@@ 1613
aftermath 1613
advertis@@ 1613
heart@@ 1613
stint 1612
Magazine 1612
alive 1612
middle-@@ 1612
Walt 1612
lifted 1612
synthes@@ 1612
mansion 1612
Chilean 1612
Yugosla@@ 1612
8/@@ 1612
plo@@ 1612
prohibited 1611
park, 1611
Boulevard 1611
Morning 1611
Stu@@ 1611
particles 1611
seeks 1611
exploration 1611
Ott@@ 1611
Compar@@ 1611
Assembly. 1611
injec@@ 1610
Lod@@ 1610
on: 1610
sequences 1610
USA. 1610
prominence 1610
Lomb@@ 1610
Chic@@ 1610
Drama 1610
eclip@@ 1610
40% 1610
Step@@ 1610
Fili@@ 1609
bridge. 1609
's" 1609
gan 1609
(to 1608
(then 1608
aided 1608
electron 1608
Tour. 1608
Kingdom@@ 1608
Alpha 1608
ded@@ 1607
recre@@ 1607
Chair@@ 1607
1920. 1607
reci@@ 1607
renovation 1607
Lex@@ 1607
3–1 1607
generating 1607
1888 1607
rape 1607
ada, 1607
Gem@@ 1607
enrollment 1606
strictly 1606
1891 1606
Bach@@ 1606
Record 1606
ity's 1606
not. 1606
by-election 1605
battle. 1605
territory. 1605
respond 1604
characters. 1604
guil@@ 1604
Ek@@ 1604
goal. 1604
cities. 1603
consecrated 1603
л@@ 1603
1910, 1603
Music, 1603
Glen@@ 1603
Berkeley 1603
stair@@ 1603
Kurt 1602
Essex 1602
ED@@ 1602
merch@@ 1602
16-@@ 1602
storyline 1602
mysterious 1602
Sut@@ 1602
Station, 1602
ya. 1602
fashi@@ 1602
rel 1601
adopt 1601
body@@ 1601
range, 1601
1925, 1601
capturing 1601
horn 1600
eson 1600
Newton 1600
delegation 1600
activities, 1600
Tel 1599
lun@@ 1599
Chelsea 1599
made. 1599
('@@ 1599
Flam@@ 1599
forms. 1599
1887 1599
News@@ 1599
ij@@ 1599
ecosy@@ 1599
overcome 1598
accredited 1598
ingly, 1598
voltage 1598
Petersburg 1598
garnered 1598
kar 1597
7/@@ 1597
iling 1597
rer@@ 1597
challenging 1597
Dead 1597
quit@@ 1597
Felix 1597
Bond 1597
graduates 1597
tiles 1596
Bj@@ 1596
30% 1596
transformation 1596
Act@@ 1596
quarters 1596
northeast@@ 1596
cities, 1596
Court. 1596
brothers, 1595
motorcycle 1595
ision 1595
Reed 1595
C). 1595
125 1594
polar 1594
eves 1594
Um@@ 1594
leagues 1594
Ltd 1594
Site 1594
ten. 1594
eleph@@ 1594
US. 1594
abad@@ 1593
slavery 1593
Andrea 1593
ander@@ 1593
ups 1593
ention 1593
statistics 1593
Tennis 1593
ele@@ 1593
Sabha 1593
issue. 1593
mandatory 1593
tica 1593
remix 1593
Ball 1593
Ellis 1593
flooding 1593
temples 1593
1917. 1592
neur@@ 1592
Diamond 1592
psychology 1592
yon 1592
wol@@ 1592
segreg@@ 1592
devic@@ 1592
transpor@@ 1592
inda 1591
mim@@ 1591
convince 1591
mud@@ 1591
Artist 1591
Thomp@@ 1591
ven, 1591
riders 1591
frat@@ 1591
Nob@@ 1591
vulnerable 1590
kid@@ 1590
Nicol@@ 1590
invasi@@ 1590
ritual 1590
Southwest 1590
kins, 1590
Nicolas 1590
Explor@@ 1590
exhibits 1590
beer 1589
kicked 1589
Kenned@@ 1589
decorative 1589
inland 1589
turn, 1589
pack 1589
sof@@ 1589
Budd@@ 1589
relatives 1588
ette, 1588
Aub@@ 1588
Recording 1588
revenge 1588
Agriculture 1587
vend@@ 1587
rival@@ 1587
pes 1586
Interior 1586
Gabri@@ 1586
assume 1586
er." 1586
Yok@@ 1586
cells. 1586
prior@@ 1585
ambigu@@ 1585
priests 1585
NASA 1585
popular@@ 1585
Pleas@@ 1585
inches 1585
towers 1585
performers 1585
elimination 1585
discussions 1584
hand. 1584
methyl@@ 1584
Dag@@ 1584
nag@@ 1584
Number 1584
possessed 1584
watch@@ 1584
products, 1584
bah@@ 1584
Reading 1583
knowing 1583
ensi@@ 1583
ador 1583
Thre@@ 1582
ale. 1582
180 1582
green@@ 1582
×@@ 1582
Wick@@ 1582
Are 1582
explosion 1582
ane, 1581
scene. 1581
Sas@@ 1581
Nathan 1581
EC 1581
happen@@ 1581
ker. 1581
memori@@ 1581
corporation 1581
Va@@ 1581
1936. 1581
Camero@@ 1581
basis. 1581
Buk@@ 1581
enclosed 1581
ipe 1580
Eight 1580
totally 1580
Goo@@ 1580
Mig@@ 1579
before, 1579
CS 1579
facilities. 1579
log 1579
Marshal 1579
smallest 1579
6,000 1579
assess@@ 1579
obvious 1578
Institute. 1578
tili@@ 1578
ning, 1578
sued 1578
ners 1578
attraction 1578
information. 1578
plant. 1578
Amsterdam 1577
22. 1577
BC's 1577
holy 1576
Airport. 1576
consequence 1576
physi@@ 1576
disappeared 1576
Madagas@@ 1576
tion-@@ 1576
1951. 1576
esia 1576
stick 1576
Audi@@ 1575
recoun@@ 1575
invitation 1575
hypo@@ 1575
Sebastian 1575
quit 1575
Rice 1575
Adult 1575
marri@@ 1575
Cole 1575
rebounds 1574
Chester 1574
liga 1574
previ@@ 1574
surrend@@ 1574
erness 1574
1880 1573
Statistical 1573
refuses 1573
1500 1573
Indianapolis 1573
descendant 1573
province. 1573
Nebraska 1573
screenplay 1573
Rein@@ 1573
doctrine 1573
velocity 1572
re-election 1572
complic@@ 1572
Public@@ 1572
1913, 1572
oli 1572
compensation 1572
ancement 1572
neph@@ 1572
reopened 1571
stly 1571
350 1571
topic 1571
Page 1571
endangered 1571
photos 1571
30.@@ 1571
sweet 1571
concep@@ 1570
Got@@ 1570
Rovers 1570
park@@ 1570
Wars 1570
air-@@ 1570
("B@@ 1570
ede 1569
Wei@@ 1569
energ@@ 1569
pa@@ 1569
Force. 1569
tility 1569
formesFamily: 1569
arium 1568
"Ac@@ 1568
Maritime 1568
parliam@@ 1568
comfortable 1568
chapters 1568
stad@@ 1568
crew@@ 1567
N.@@ 1567
Ner@@ 1567
faction 1567
attractive 1567
Shak@@ 1566
1900, 1566
Architec@@ 1566
Greatest 1566
immune 1566
iron@@ 1566
Wig@@ 1565
batted 1565
McCl@@ 1565
muse@@ 1565
Film@@ 1564
walks 1564
late-@@ 1564
audiences 1564
ernity 1564
clients 1564
friends. 1564
(where 1564
ne-@@ 1563
solve 1563
complicated 1563
net. 1563
mund@@ 1563
Sex@@ 1562
parts. 1561
44@@ 1561
daughter. 1561
decision. 1561
ρ@@ 1561
migrated 1561
anxi@@ 1561
Chess 1561
Merc@@ 1561
FK 1561
Run 1560
G.@@ 1560
Gaelic 1560
Academy. 1560
rescued 1560
electron@@ 1560
facts 1560
collapsed 1560
secretly 1560
ays. 1560
otted 1560
Til@@ 1559
gh, 1559
promis@@ 1559
confer@@ 1559
reconnaissance 1559
ui 1559
lakes 1559
constitute 1559
neighbor@@ 1559
Similar 1558
worth@@ 1558
Jama@@ 1558
Philli@@ 1558
Gand@@ 1558
Mahar@@ 1558
transform@@ 1557
holes 1557
Sli@@ 1557
Bradford 1557
Grac@@ 1557
III. 1557
(191@@ 1557
problems, 1557
te. 1557
lining 1557
equipment, 1557
al; 1557
nes@@ 1556
Integr@@ 1556
Break@@ 1556
variants 1556
phosph@@ 1556
semi-final 1556
Brooks 1556
ument, 1556
salary 1556
sponsorship 1556
Adrian 1556
Stok@@ 1556
Litt@@ 1555
mun@@ 1555
Navy, 1555
atory, 1555
sector. 1555
Durham 1555
6/@@ 1555
Hip@@ 1555
assignment 1554
toll 1554
Telec@@ 1554
Act. 1554
parall@@ 1554
adic 1554
eder@@ 1553
Day, 1553
Afghan 1553
(although 1553
bind@@ 1553
Kaw@@ 1552
abstract 1552
anks 1552
punishment 1551
yards, 1551
ocene 1551
German, 1551
Lay@@ 1551
ah's 1551
phic 1551
essay 1550
Duchy 1550
Televisi@@ 1550
preservation 1550
traces 1550
alists, 1550
AFL 1550
nut@@ 1550
(both 1550
Crystal 1549
route. 1549
Clint@@ 1549
Connec@@ 1549
revolu@@ 1549
ity". 1549
ilian 1549
apprentic@@ 1549
vacant 1548
consist@@ 1548
plan, 1548
highlighted 1548
Esc@@ 1548
Gene 1548
fum@@ 1547
U.S.@@ 1547
ling. 1547
ema 1547
instructions 1547
DP@@ 1547
Cler@@ 1547
Athle@@ 1547
vinyl 1546
implement@@ 1546
100. 1546
Emir@@ 1546
led@@ 1546
mph 1546
Lob@@ 1546
finest 1546
olf 1546
Life" 1546
uka 1546
keeper 1546
ton-@@ 1546
through@@ 1546
Rey@@ 1545
supervision 1545
renov@@ 1545
inn 1545
play-@@ 1545
enacted 1545
hoping 1545
′@@ 1545
ried 1545
specimen 1545
subscri@@ 1545
Heinrich 1545
-ye 1545
resolu@@ 1545
Agu@@ 1544
investors 1544
Comics 1544
yar@@ 1544
Nevada 1544
1,500 1544
hit@@ 1544
Study 1544
destin@@ 1544
tures@@ 1544
satisfied 1543
30. 1543
atorial 1543
nominations 1543
ante@@ 1543
mob@@ 1543
"P. 1543
mount 1543
NP@@ 1543
staff, 1543
blind 1543
fting 1542
struggling 1542
realizes 1542
dogs 1542
eb 1542
Employ@@ 1542
sends 1542
consult@@ 1542
cultures 1541
brack@@ 1541
paint@@ 1541
warned 1541
Hugo 1541
consideration 1541
behind@@ 1541
ites, 1541
persist@@ 1541
ession. 1541
colours 1541
practice. 1540
Micro@@ 1540
itarian 1540
decades. 1540
mos 1540
refuge 1540
ung, 1539
Aust@@ 1539
likes 1539
ire, 1539
util@@ 1539
near-@@ 1539
enormous 1538
interactions 1538
—and 1538
ation." 1538
160 1538
Nepal 1538
Stevens 1538
ev, 1538
declaration 1538
Catholic@@ 1537
instructor 1537
alien 1537
Roth@@ 1537
Low 1537
wrong@@ 1537
Malaysian 1537
comparable 1537
democracy 1536
slight 1536
Cuba 1536
shap@@ 1536
architects 1536
rotation 1536
Sind@@ 1536
eton 1536
rat 1536
streams 1536
memor@@ 1536
ver's 1536
confusion 1535
beliefs 1535
supposedly 1535
David@@ 1535
counsel@@ 1535
(13@@ 1535
Duncan 1535
dimen@@ 1535
Blood@@ 1534
yield 1534
membrane 1534
Dic@@ 1534
Toy@@ 1534
hu 1533
hospitals 1533
regained 1533
ense. 1533
1930s. 1533
Line, 1533
sometime 1532
Year. 1532
ylon 1532
upgrad@@ 1532
Vul@@ 1532
has@@ 1532
merg@@ 1532
rock, 1532
Spirit 1532
pace 1531
Dul@@ 1531
Vermont 1531
television. 1531
doctors 1531
Twitter 1530
Commercial 1530
sts. 1530
civic 1530
threats 1529
Notre 1529
ammunition 1529
o; 1529
universe 1529
enforc@@ 1529
3–0 1529
Roh@@ 1529
Del 1529
Heal@@ 1528
eria 1528
memo@@ 1528
Sist@@ 1528
immigrant 1528
website, 1528
too@@ 1528
incid@@ 1528
achievements 1527
Indies 1527
FF@@ 1527
Line. 1527
management, 1527
1911, 1527
India's 1527
puzz@@ 1526
enabling 1526
reform@@ 1526
Belgium, 1526
stars, 1526
static 1526
explanation 1525
Freed@@ 1525
resides 1525
farmer@@ 1525
crop 1524
tackles 1524
2; 1524
Sign@@ 1524
hurricane 1524
resided 1524
entity 1524
mus 1524
Track 1524
Corporation. 1524
customs 1523
know@@ 1523
vag@@ 1523
slaugh@@ 1523
load@@ 1523
Jen@@ 1523
legacy 1523
moments 1523
network@@ 1523
utility 1522
dir@@ 1522
boss 1522
suited 1522
Cornell 1522
predecess@@ 1522
amer@@ 1522
stun@@ 1522
est" 1522
enic 1522
addy 1522
faul@@ 1521
Dah@@ 1521
essa 1521
deliver@@ 1521
spectrum 1521
verses 1521
ain's 1521
killed, 1521
victor@@ 1521
Guild 1520
kinson 1520
compli@@ 1520
Melbourne, 1520
side-@@ 1519
Finn@@ 1519
Billboard 1519
1937. 1519
politician, 1519
Educ@@ 1519
Fame. 1519
wear@@ 1519
sian 1519
Airport, 1518
y’s 1518
Ing@@ 1518
farms 1518
part-time 1518
his@@ 1518
limestone 1518
Cool@@ 1517
blind@@ 1517
rectangular 1517
Palmer 1517
climb 1517
d: 1517
cruise 1517
settling 1517
prolific 1517
etary 1517
lifetime 1516
teeth 1516
tactical 1516
Ludwig 1516
stories, 1516
pump@@ 1516
red-@@ 1515
Institut@@ 1515
iller 1515
ason 1515
procedures 1515
oding 1515
(not 1515
corrup@@ 1515
cancer. 1515
Task 1514
UT@@ 1514
tradition, 1514
tar 1514
Wolf 1514
Bau@@ 1514
appearance, 1514
old-@@ 1514
perman@@ 1513
securing 1513
shows. 1513
eur 1513
acceptance 1513
Aber@@ 1513
seemingly 1512
economy. 1512
All-American 1512
Berlin. 1512
Hes@@ 1512
vil 1512
course. 1512
Belar@@ 1512
Missouri. 1512
oney 1512
Post" 1511
Eis@@ 1511
1,6@@ 1511
OD@@ 1511
reasonable 1511
sville 1511
Guinea 1511
Quali@@ 1510
axis 1510
Bank, 1510
regulated 1510
Queens 1510
hima 1510
location, 1510
eno 1510
poor@@ 1510
GS@@ 1510
finalist 1510
%@@ 1509
Gate 1509
keys 1509
gross 1509
Cardinals 1509
akk@@ 1508
19th-century 1508
firms 1508
Criminal 1508
utilized 1508
Curtis 1508
theory. 1508
Cook@@ 1508
(183@@ 1507
threatening 1507
couldn't 1507
ely. 1507
Olympi@@ 1507
via. 1507
beside 1507
Tag 1507
wedd@@ 1507
indie 1506
busy 1506
toler@@ 1506
algorithm 1506
seats. 1505
worth, 1505
earlier, 1505
disputed 1505
cemeter@@ 1505
Kub@@ 1505
pur, 1504
mini-@@ 1504
exerc@@ 1504
Amar@@ 1504
Fisher 1504
Diplom@@ 1503
Constitutional 1503
ument. 1503
Railway. 1503
sites. 1503
vian 1503
precise 1503
weeks, 1503
Parks 1503
bled 1503
monitor 1503
Planning 1502
Lucy 1502
ET@@ 1502
ems 1502
sponsor 1502
Lebanese 1502
Peak 1502
Lancashire 1502
neys 1502
length, 1502
street@@ 1502
biology 1501
Deep 1501
eze 1501
tunn@@ 1501
property, 1501
Given 1501
hostile 1501
behaviour 1500
Electronic 1500
teenth 1500
administration. 1500
itt 1500
A), 1500
aco 1500
vec@@ 1499
1884 1499
is: 1499
maneu@@ 1499
Shin@@ 1499
esa 1499
1870 1499
appealed 1499
sus 1499
common@@ 1498
infra@@ 1498
bli@@ 1498
anny 1498
Mongol@@ 1498
Publish@@ 1498
fight@@ 1497
availability 1497
rule. 1497
conspiracy 1497
trophy 1497
ala. 1497
Bus 1496
remov@@ 1496
60% 1496
folded 1496
accur@@ 1496
Future 1496
Plant 1496
owski 1496
decades, 1496
swept 1496
reson@@ 1495
known, 1495
disper@@ 1495
invent@@ 1495
ri, 1495
1920s, 1495
Lodge 1495
Canterbury 1495
metric 1495
Cec@@ 1495
Gymn@@ 1494
phy@@ 1494
soldi@@ 1494
hydrox@@ 1494
albeit 1494
skat@@ 1494
trol@@ 1493
supp@@ 1493
contradic@@ 1493
modest 1493
shortened 1493
architecture. 1493
Davies 1493
tram 1493
escent 1493
Ernst 1493
Coalition 1493
O) 1493
client 1493
Mei@@ 1493
retaining 1492
fear@@ 1492
tang@@ 1492
Montan@@ 1492
shield 1492
bike 1492
Miles 1492
plants, 1492
sources, 1491
PG@@ 1491
revi@@ 1491
Hud@@ 1491
kra@@ 1491
trace 1491
dorsal 1490
Dorothy 1490
Palm 1490
start@@ 1490
Frances 1490
HF 1490
storey 1490
high, 1490
Draft 1490
Iron@@ 1489
money, 1489
eni 1489
dwar@@ 1489
deployment 1489
osh 1489
Lakes 1489
conversation 1489
1881 1489
Desert 1488
bord@@ 1488
ener 1488
-- 1488
Nebrask@@ 1488
Greece, 1488
Milton 1488
ceas@@ 1488
succeeding 1488
Mey@@ 1488
E) 1487
how@@ 1487
fights 1487
Magn@@ 1486
diam@@ 1486
warfare 1486
revealing 1486
newspaper, 1486
network, 1486
Seri@@ 1486
Forum 1485
Paul's 1485
l's 1485
e-based 1485
Chev@@ 1485
another. 1485
strongest 1485
front@@ 1485
bor 1485
teacher, 1485
Associated 1485
panels 1485
Guards 1485
Monter@@ 1485
coined 1485
listening 1485
Electr@@ 1485
Preston 1484
olithic 1484
Sussex 1484
solic@@ 1484
appoint@@ 1484
nin@@ 1484
Circle 1484
pink 1483
Force, 1483
demol@@ 1483
uter@@ 1483
an), 1483
chin@@ 1483
gluc@@ 1483
remnants 1483
empire 1483
Bradley 1483
24. 1482
enders 1482
cabin@@ 1482
archi@@ 1482
transmit@@ 1482
B.A. 1482
sevent@@ 1482
ended, 1482
D.C., 1481
anatom@@ 1481
terminated 1481
Juni@@ 1481
num@@ 1481
nal 1481
Baz@@ 1481
elig@@ 1481
Crist@@ 1481
evalu@@ 1480
Chor@@ 1480
Pam@@ 1480
blog@@ 1480
UFC 1480
corn@@ 1480
Hew@@ 1480
Amazon 1480
der, 1480
Gibson 1480
oversaw 1479
40,000 1479
3; 1479
jew@@ 1479
Flo@@ 1479
ids. 1479
cles. 1479
reput@@ 1479
regulatory 1479
Prot@@ 1479
advisory 1478
mobil@@ 1478
traced 1478
launching 1478
st" 1478
researcher 1478
transmitted 1478
Cemetery. 1478
ica. 1478
gather 1478
Stur@@ 1478
interi@@ 1478
teaches 1478
tent 1478
placement 1478
specul@@ 1477
attained 1477
respectively 1477
Yellow 1477
Queensland, 1477
enlarged 1477
hide 1477
Chrys@@ 1477
scrap@@ 1477
bass@@ 1477
coordin@@ 1476
accord@@ 1476
Nis@@ 1476
Arsenal 1476
ually, 1476
Norway, 1476
Kenny 1475
distor@@ 1475
15,000 1475
Kau@@ 1475
Brighton 1475
kne@@ 1475
respec@@ 1475
IA 1475
configuration 1475
Fla@@ 1475
caps 1474
examp@@ 1474
flex@@ 1474
Hill. 1474
sworth 1473
unit, 1473
Tradi@@ 1473
ard" 1473
Perth 1473
Still@@ 1473
Stage 1472
iter 1472
technolog@@ 1472
nett 1472
sheep 1472
journalism 1472
feld 1472
birthday 1472
potenti@@ 1472
substance 1472
copies. 1471
Baghd@@ 1471
understand@@ 1471
tasked 1471
SR@@ 1471
Relations 1471
Amy 1471
Danc@@ 1471
short, 1471
ew, 1471
extra@@ 1471
Friends 1471
Superior 1471
John, 1470
pounds 1470
cord 1470
barrel@@ 1470
abov@@ 1470
ia" 1470
eres 1470
annexed 1470
societies 1470
23. 1470
runway 1470
symbols 1469
Punjab 1469
vas 1469
environment@@ 1469
navy 1469
nation. 1469
Santiago 1469
defunct 1469
condem@@ 1469
ill-@@ 1469
hibi@@ 1469
Adel@@ 1468
prev@@ 1468
Living 1468
consent 1468
ata" 1467
ahu@@ 1467
adds 1467
ing), 1467
resemble 1467
alis 1467
admission 1467
whatever 1467
endi@@ 1467
Rican 1467
1886 1467
drives 1466
prey 1466
unlikely 1466
Aug@@ 1466
keep@@ 1466
Brad 1466
pursuing 1466
demonstration 1466
orbit@@ 1465
UP@@ 1465
"Rolling 1465
Humph@@ 1465
Div@@ 1465
icia 1465
dol@@ 1465
violation 1465
Martha 1465
languag@@ 1465
Northeast 1465
ampi@@ 1465
Republicans 1465
policy. 1464
oft 1464
dut@@ 1464
demanding 1464
sculptor 1464
fraud@@ 1464
Series. 1464
bey@@ 1463
opter@@ 1463
lifting 1463
25,000 1463
vehic@@ 1463
suburbs 1463
goals, 1463
material, 1462
Shor@@ 1462
Coron@@ 1462
Currently 1462
marble 1462
tric@@ 1462
interred 1462
similarities 1461
philosoph@@ 1461
professionals 1461
jar@@ 1461
Linda 1461
zar@@ 1461
schol@@ 1461
systematic 1461
Abdul 1461
clerk 1461
retire 1460
ahan 1460
cluster 1460
Non@@ 1460
Inst@@ 1460
Celeb@@ 1460
avoided 1460
aggregate 1460
not, 1460
particle 1459
sings 1459
prayer 1459
Alg@@ 1459
Morg@@ 1459
Consequently, 1459
acet@@ 1459
Euro 1459
Field@@ 1459
plantation 1459
repor@@ 1459
uda 1459
manifest@@ 1458
presenter 1458
Andrews 1458
trapped 1458
Engineers 1458
ast, 1458
Chart. 1458
140@@ 1458
z's 1457
ack, 1457
Ign@@ 1457
loose 1457
Minnesota, 1457
Artists 1457
trade. 1457
Adolf 1457
sea. 1457
sbury 1457
decree 1457
Kingston 1457
viewing 1457
ovan 1456
Julie 1456
IL@@ 1456
Tennessee, 1456
presumably 1456
everyday 1456
Deg@@ 1456
1914. 1455
Midd@@ 1455
loop@@ 1455
is) 1455
Joshua 1455
RN@@ 1455
ation). 1455
flor@@ 1454
Ches@@ 1454
usions 1454
combine 1454
vibr@@ 1454
20–@@ 1454
copyright 1454
Bird 1454
wildlife 1454
crews 1454
Environment 1454
aca 1454
m). 1454
direction. 1453
bigger 1453
automobile 1453
new, 1453
Bam@@ 1453
Initi@@ 1453
lengths 1453
backup 1453
Indoor 1453
-H@@ 1452
Xbox 1452
Literature 1452
oo, 1452
known. 1451
1930. 1451
here, 1451
Catholics 1451
hand-@@ 1451
Plymouth 1451
"Le@@ 1451
devi@@ 1450
Music. 1450
GB 1450
freshwater 1450
Comple@@ 1450
Rak@@ 1450
tens 1450
tasks 1450
parts, 1450
ap, 1450
deploy@@ 1449
consolidated 1449
substr@@ 1449
5; 1449
session@@ 1449
Stro@@ 1449
shi 1449
How 1449
Mai@@ 1449
Quebec, 1448
elem@@ 1448
Nami@@ 1448
Gardens 1448
Formation 1448
debut, 1448
tions: 1448
commemorate 1447
yo 1447
criteria 1447
cars, 1447
neigh@@ 1447
evi@@ 1447
certific@@ 1447
Station. 1446
hypothes@@ 1446
tion." 1446
differs 1446
NASCAR 1446
quot@@ 1446
seal 1446
gen, 1446
Croatia 1446
Malcolm 1445
plain@@ 1445
Communic@@ 1445
bud@@ 1445
Ground 1445
associations 1445
audience. 1445
descrip@@ 1445
rum 1445
une 1444
answ@@ 1444
cognitive 1444
Where 1444
tract 1444
Andrew@@ 1444
ulu 1444
ada. 1444
zhou 1444
stein, 1444
fossils 1443
stry 1443
Word@@ 1443
mys@@ 1443
VIII 1443
Indian@@ 1443
1908, 1443
Secur@@ 1443
hub 1442
andro 1442
geographic 1442
Cai@@ 1442
unit. 1442
staff. 1442
charitable 1441
Schul@@ 1441
favored 1441
eting 1441
thal 1441
handful 1441
arguments 1441
keyboard@@ 1441
Anton 1441
C), 1441
ATP 1440
epic 1440
mons 1440
Trump@@ 1440
nic 1439
teenage 1439
val. 1439
floor. 1439
G, 1439
(October 1439
ting@@ 1439
codes 1439
Pragu@@ 1439
Marco 1439
101 1438
terrain 1438
Cock@@ 1438
ment's 1438
credi@@ 1438
Lon@@ 1438
Brigade, 1438
1935. 1438
extraordinary 1438
habitats 1438
DM@@ 1438
Khar@@ 1437
usu@@ 1437
oles 1437
door@@ 1437
outcome 1437
Zur@@ 1437
Columbus 1437
accompl@@ 1437
exil@@ 1437
centre, 1436
nick@@ 1436
addres@@ 1436
commit 1436
separately 1436
(by 1436
yan@@ 1436
welcomed 1436
defining 1436
Ez@@ 1435
tec@@ 1435
organizations, 1435
31.@@ 1435
pyram@@ 1435
m-@@ 1435
reader 1435
subspecies 1435
positioned 1435
structured 1435
premises 1435
ys, 1435
half. 1434
K, 1434
Bangladesh@@ 1434
drow@@ 1434
engaging 1434
voices 1434
igu@@ 1434
unions 1434
Liby@@ 1434
composers 1433
coloured 1433
French-@@ 1433
Let 1433
oce@@ 1433
1861 1433
Anat@@ 1433
single. 1433
154@@ 1433
jum@@ 1432
Kerala 1432
(June 1432
Hondur@@ 1432
comput@@ 1432
said. 1432
Glouc@@ 1432
tensions 1432
deleg@@ 1432
esse@@ 1432
Hick@@ 1432
Kong@@ 1432
Rosen@@ 1431
ones. 1431
emic 1431
(12@@ 1431
strange 1431
technological 1431
eries, 1430
agenci@@ 1430
Group@@ 1430
ant's 1430
investigations 1430
report, 1430
theology 1430
Bass@@ 1430
Youn@@ 1430
pper 1430
Pass 1430
bankruptcy 1430
chorus 1430
configur@@ 1430
investigating 1430
robber@@ 1430
Rocky 1430
Sit@@ 1430
professionally 1429
"Pe@@ 1429
bout 1429
Productions 1429
76@@ 1429
effect. 1429
m's 1429
ornam@@ 1429
escal@@ 1429
below@@ 1429
wartime 1428
"How 1428
laugh@@ 1428
$1 1428
navigation 1428
Gen. 1428
chronic 1428
acked 1428
acter@@ 1428
cars. 1428
interview, 1428
regions. 1428
Fish 1428
hin@@ 1428
molecules 1427
Avenue. 1427
eds. 1427
Town. 1427
affir@@ 1427
Louis, 1427
actions, 1427
explaining 1426
syl@@ 1426
angry 1426
broader 1426
depend@@ 1426
Ukra@@ 1426
reflecting 1426
arians 1426
’t 1425
Legal 1425
sch 1425
campus. 1425
reb@@ 1425
diving 1425
neighbourhood 1425
140 1425
forewings 1425
poss@@ 1425
Commission. 1425
floors 1425
mobili@@ 1425
Hig@@ 1425
embassy 1424
lot@@ 1424
testimony 1424
tened 1424
univer@@ 1424
electri@@ 1424
en". 1424
Yang@@ 1424
hl@@ 1424
families, 1423
calend@@ 1423
Carol 1423
fried 1423
"We@@ 1422
Living@@ 1422
foreign@@ 1422
ils. 1422
Academic 1422
Guill@@ 1422
displaced 1422
enhance 1422
AIDS 1422
pretty 1422
owner, 1421
Brist@@ 1421
Bears 1421
incidents 1420
guns, 1420
philosopher 1420
Hey@@ 1420
carriage 1420
as-@@ 1420
W.@@ 1420
develops 1420
Gospel 1420
ily, 1420
Yuk@@ 1420
Tot@@ 1419
honours 1419
server 1419
intellect@@ 1419
Simpson 1419
uba 1419
sufficiently 1419
ector 1419
detail@@ 1419
[...]
